{
  "src_word2id": {
    "<pad>": 0,
    "<s>": 1,
    "</s>": 2,
    "<unk>": 3,
    "\u2581": 4,
    ",": 5,
    "\u2581\u13a4": 6,
    "\u2581\u13a0": 7,
    "\u13b5": 8,
    "\u13a9": 9,
    "\u13af": 10,
    "\u13c2": 11,
    "\u13a2": 12,
    ".": 13,
    "\u13d3": 14,
    "\u13db": 15,
    "\u13d7": 16,
    "\u13c3": 17,
    "\u13c5": 18,
    "\u13be": 19,
    "\u13c1": 20,
    "\u2581\u13a0\u13b4": 21,
    "\u13a6": 22,
    "\u13b8": 23,
    "\u13d9": 24,
    "\u13cd\u13d7": 25,
    "\u2581\u13be\u13cd\u13a9": 26,
    "\u13e5": 27,
    "\u13e9": 28,
    "\u13d2": 29,
    "\u13ef": 30,
    ";": 31,
    "\u2581\u13a2": 32,
    "\u13aa": 33,
    "\u13cf": 34,
    "\u13f4": 35,
    "\u13b3": 36,
    "\u13b4": 37,
    "\u13ad": 38,
    "\u13a8": 39,
    "\u2581\u13d7": 40,
    "\u13ac": 41,
    "\u13b2": 42,
    "\u2581\u13e7": 43,
    "\u13c9": 44,
    "\u13ce": 45,
    "\u13f2": 46,
    "\u2581\u13a6": 47,
    "\u2581\u13af\u13a0": 48,
    "\u13e3": 49,
    "\u13d5": 50,
    "\u13da": 51,
    "\u13f3": 52,
    "\u13d4": 53,
    "\u13b6": 54,
    "\u13cd\u13a9": 55,
    "\u2581\u13e5": 56,
    "\u13eb": 57,
    "\u2581\u13c4": 58,
    "\u13a5": 59,
    "\u2581\u13da": 60,
    "\u13ae": 61,
    "\u13e8": 62,
    "\u13c6": 63,
    "\u13cc": 64,
    "\u13f0": 65,
    "\u13e4": 66,
    "\u13ea": 67,
    "\u2581\u13c2": 68,
    "\u13f1": 69,
    "\u2581\u13a1": 70,
    "\u13d8": 71,
    "\u13cd\u13ac": 72,
    "\u2581\u13a8\u13d2": 73,
    "\u2581\u13f1": 74,
    "\u2581\u13a0\u13c2": 75,
    "\u13a7": 76,
    "\u2581\u13a3": 77,
    "\u13cd\u13a6": 78,
    "\u13e2": 79,
    "\u13ec": 80,
    "\u2581\u13d3": 81,
    "\u2581\u13be": 82,
    "\u13b7": 83,
    "\u2581\u13a8": 84,
    "\u13cd": 85,
    "\u13cd\u13aa": 86,
    "\u2581\u13a4\u13c2": 87,
    "\u2581\u13a2\u13f3": 88,
    "\u13cd\u13db": 89,
    "\u13d3\u13c5": 90,
    "\u2581\u13c2\u13a6": 91,
    "\u2581\u13a4\u13be": 92,
    "\u2581\u13d5": 93,
    "\u13df": 94,
    "\u13d7\u13f1": 95,
    "\u2581\u13e3": 96,
    "\u13c4": 97,
    "\u13d0": 98,
    "\u13e4\u13b5": 99,
    "\u13af\u13f3": 100,
    "\u2581\u13c5": 101,
    "\u13c8": 102,
    "\u2581\u13a5\u13dd": 103,
    "\u13cd\u13d3": 104,
    "\u13f0\u13c3": 105,
    "\u13ea\u13ce": 106,
    "\u2581\u13a8\u13d2\u13a2": 107,
    "\u13c1\u13b8": 108,
    "\u13b0": 109,
    "\u2581\u13a4\u13c1\u13b3\u13c5\u13af": 110,
    "\u2581\u13a8\u13ce\u13cd\u13d7": 111,
    "\u201d": 112,
    "\u13cd\u13c6": 113,
    "\u13cd\u13d7\u13f1": 114,
    "?": 115,
    "\u13cd\u13d4": 116,
    "\u13e7": 117,
    "\u2581\u13c3\u13b4": 118,
    "\u2581\u13ac": 119,
    "\u13cd\u13d9\u13d7": 120,
    "\u13cd\u13d3\u13c1": 121,
    "\u2581\u13aa": 122,
    "\u2581\u13a2\u13a6": 123,
    "\u13b4\u13a2": 124,
    "\u2581\u13eb": 125,
    "\u13d6": 126,
    "\u2581\u13f4\u13eb": 127,
    "\u13cd\u13a9\u13c2": 128,
    "\u13a1": 129,
    "\u13a0": 130,
    "\u13cd\u13a8": 131,
    "\u2060": 132,
    "\u13cd\u13d5": 133,
    "\u2581\u13ed": 134,
    "\u13d1": 135,
    "\u13c1\u13a2": 136,
    "\u13e6": 137,
    "-": 138,
    "\u13a6\u13d4": 139,
    "\u13ab": 140,
    "\u2581\u13ac\u13e9": 141,
    "\u2581\u13a9\u13b6": 142,
    "\u13d9\u13d7": 143,
    "\u13c7": 144,
    "\u13bf": 145,
    "\u2581\u13be\u13cd\u13a9\u13ef": 146,
    "\u2581\u13be\u13bf": 147,
    "\u2581\u13a2\u13e3": 148,
    "\u2581\u13bf\u13c9": 149,
    "\u2581\u13be\u13cd\u13c9": 150,
    "\u13cd\u13d4\u13c5": 151,
    "\u2581\u13e6": 152,
    "\u2581\u13a2\u13f3\u13cd\u13d7": 153,
    "\u13bb": 154,
    "\u2581\u13a6\u13d9": 155,
    "\u2581\u13e5\u13cc": 156,
    "\u2581\u13a0\u13ce\u13c3": 157,
    "\u13f0\u13b8": 158,
    "\u13cd\u13a8\u13cd\u13d7": 159,
    "\u13b1": 160,
    "\u13e0": 161,
    "\u13b9": 162,
    "\u13dd": 163,
    "\u13a4": 164,
    "\u2581\u13aa\u13b1\u13cd\u13d7": 165,
    "\u2581\u13f1\u13b0\u13e9": 166,
    "\u201c": 167,
    "\u13e1": 168,
    "\u13bc": 169,
    "!": 170,
    "\u13a3": 171,
    "]": 172,
    "\u13cb": 173,
    "\u13ba": 174,
    ":": 175,
    "\u13ee": 176,
    "\u13de": 177,
    "\u13ed": 178,
    "\u13ca": 179,
    "\u13dc": 180,
    "e": 181,
    "a": 182,
    "r": 183,
    "o": 184,
    "i": 185,
    "t": 186,
    "n": 187,
    "l": 188,
    "s": 189,
    ")": 190,
    "h": 191,
    "d": 192,
    "y": 193,
    "\u13c0": 194,
    "p": 195,
    "P": 196,
    "C": 197,
    "(": 198,
    "[": 199,
    "c": 200
  },
  "tgt_word2id": {
    "<pad>": 0,
    "<s>": 1,
    "</s>": 2,
    "<unk>": 3,
    ",": 4,
    "\u2581the": 5,
    "\u2581and": 6,
    ".": 7,
    "\u2581of": 8,
    "\u2581to": 9,
    "\u2581that": 10,
    "\u2581in": 11,
    "\u2581And": 12,
    "\u2581he": 13,
    "\u2581a": 14,
    "\u2581I": 15,
    ";": 16,
    ":": 17,
    "\u2581unto": 18,
    "s": 19,
    "\u2581him": 20,
    "\u2581his": 21,
    "\u2581be": 22,
    "\u2581is": 23,
    "\u2581for": 24,
    "\u2581they": 25,
    "\u2581not": 26,
    "\u2581shal": 27,
    "\u2581it": 28,
    "\u2581was": 29,
    "l": 30,
    "\u2581with": 31,
    "\u2581them": 32,
    "\u2581said": 33,
    "\u2581": 34,
    "\u2581all": 35,
    "\u2581you": 36,
    "ing": 37,
    "ed": 38,
    "\u2581God": 39,
    "\u2581ye": 40,
    "\u2581as": 41,
    "?": 42,
    "\u2581me": 43,
    "\u2019": 44,
    "\u2581from": 45,
    "\u2581thou": 46,
    "\u2581my": 47,
    "\u2581but": 48,
    "\u2581have": 49,
    "\u2581are": 50,
    "t": 51,
    "\u2581on": 52,
    "\u2581were": 53,
    "\u2581Lord": 54,
    "\u2581had": 55,
    "\u2581which": 56,
    "\u2581when": 57,
    "\u2581\u201c": 58,
    "\u2581their": 59,
    "\u2581man": 60,
    "\u201d": 61,
    "\u2581one": 62,
    "\u2581out": 63,
    "\u2581this": 64,
    "\u2581will": 65,
    "\u2581we": 66,
    "\u2581up": 67,
    "\u2581by": 68,
    "\u2581into": 69,
    "\u2581thy": 70,
    "\u2581The": 71,
    "\u2581thee": 72,
    "\u2581But": 73,
    "\u2581there": 74,
    "\u2581came": 75,
    "\u2581Jesus": 76,
    "\u2581who": 77,
    "\u2581her": 78,
    "\u2581at": 79,
    "\u2581things": 80,
    "\u2581also": 81,
    "\u2581upon": 82,
    "\u2581your": 83,
    "d": 84,
    "\u2581us": 85,
    "\u2581For": 86,
    "\u2581no": 87,
    "\u2581come": 88,
    "\u2581she": 89,
    "\u2581if": 90,
    "\u2581hath": 91,
    "\u2581do": 92,
    "\u2581He": 93,
    "\u2581made": 94,
    "\u2581an": 95,
    "\u2581went": 96,
    "\u2581day": 97,
    "\u2581down": 98,
    "\u2581saying": 99,
    "\u2581so": 100,
    "\u2581our": 101,
    "\u2581even": 102,
    "\u2581say": 103,
    "\u2581men": 104,
    "\u2581people": 105,
    "\u2581before": 106,
    "\u2581or": 107,
    "\u2581these": 108,
    "\u2581may": 109,
    "\u2581Christ": 110,
    "\u2581go": 111,
    "-": 112,
    "\u2581what": 113,
    "eth": 114,
    "!": 115,
    "'": 116,
    "ly": 117,
    "\u2581did": 118,
    "\u2581after": 119,
    "\u2581know": 120,
    "\u2581make": 121,
    "\u2581every": 122,
    "\u2581let": 123,
    "\u2581through": 124,
    "\u2581Wilbur": 125,
    "\u2581son": 126,
    "\u2581land": 127,
    "cause": 128,
    "\u2581therefore": 129,
    "\u2581would": 130,
    "\u2581then": 131,
    "\u2581away": 132,
    "\u2581good": 133,
    "\u2581children": 134,
    "\u2581hand": 135,
    "\u2581over": 136,
    "\u2581about": 137,
    "\u2581Moses": 138,
    "\u2581two": 139,
    "\u2581called": 140,
    "\u2581am": 141,
    "\u2581earth": 142,
    "\u2581house": 143,
    "\u2581should": 144,
    "th": 145,
    "\u2581any": 146,
    "\u2581father": 147,
    "\u2581name": 148,
    "\u2581great": 149,
    "\u2581put": 150,
    "\u2581now": 151,
    "y": 152,
    "\u2581like": 153,
    "\u2581days": 154,
    "\u2581against": 155,
    "\u2581whom": 156,
    "\u2581saw": 157,
    "\u2581been": 158,
    "\u2581where": 159,
    "\u2581heard": 160,
    "\u2581saith": 161,
    "e": 162,
    "\u2581more": 163,
    "\u2581see": 164,
    "\u2581many": 165,
    "\u2581took": 166,
    "\u2581give": 167,
    "\u2581pass": 168,
    "\u2581Israel": 169,
    "\u2581Now": 170,
    "\u2581forth": 171,
    "\u2581time": 172,
    "\u2581life": 173,
    "\u2581take": 174,
    "\u2581again": 175,
    "\u2581brethren": 176,
    "\u2581another": 177,
    "\u2581heaven": 178,
    "\u2581himself": 179,
    "st": 180,
    "\u2581word": 181,
    "\u2581might": 182,
    "\u2581way": 183,
    "\u2581world": 184,
    "\u2581sons": 185,
    "\u2581Then": 186,
    "\u2581first": 187,
    "\u2581own": 188,
    "\u2581behold": 189,
    "\u2581other": 190,
    "\u2581how": 191,
    "se": 192,
    "\u2581among": 193,
    "\u2581brought": 194,
    "\u2581law": 195,
    "\u2581Father": 196,
    "\u2581little": 197,
    "\u2581place": 198,
    "\u2581some": 199,
    "\u2581could": 200,
    "\u2581eat": 201,
    "\u2581than": 202,
    "\u2581old": 203,
    "\u2581back": 204,
    "\u2581Jacob": 205,
    "\u2581Egypt": 206,
    "\u2581sent": 207,
    "\u2581accord": 208,
    "\u2581years": 209,
    "\u2581Spirit": 210,
    "\u2581brother": 211,
    "f": 212,
    "\u2581Pharaoh": 213,
    "\u2581love": 214,
    "\u2581gave": 215,
    "\u2581disciples": 216,
    "\u2581cast": 217,
    "\u2581Abraham": 218,
    "\u2581water": 219,
    "\u2581faith": 220,
    "\u2581Mr": 221,
    "\u2581found": 222,
    "\u2581set": 223,
    "\u2581wife": 224,
    "\u2581voice": 225,
    "\u2581They": 226,
    "\u2581yet": 227,
    "\u2581It": 228,
    "\u2581A": 229,
    "\u2581O": 230,
    "\u2581under": 231,
    "\u2581glory": 232,
    "\u2581dead": 233,
    "\u2581hast": 234,
    "\u2581having": 235,
    "\u2581Charlotte": 236,
    "\u2581being": 237,
    "\u2581done": 238,
    "\u2581answered": 239,
    "\u2581spake": 240,
    "\u2581Joseph": 241,
    "\u2581bring": 242,
    "\u2581together": 243,
    "\u2581night": 244,
    "\u2581heart": 245,
    "\u2581city": 246,
    "\u2581Son": 247,
    "\u2581eyes": 248,
    "r": 249,
    "m": 250,
    "\u2581work": 251,
    "\u2581neither": 252,
    "\u2581only": 253,
    "\u2581both": 254,
    "\u2581speak": 255,
    "\u2581three": 256,
    "\u2581flesh": 257,
    "\u2581When": 258,
    "\u2581What": 259,
    "\u2581can": 260,
    "\u2581thereof": 261,
    "\u2581nor": 262,
    "\u2581same": 263,
    "\u2581fire": 264,
    "\u2581given": 265,
    "\u2581much": 266,
    "\u2581without": 267,
    "I": 268,
    "\u2581right": 269,
    "\u2581seven": 270,
    "\u2581Thi": 271,
    "\u2581left": 272,
    "\u2581blood": 273,
    "\u2581hear": 274,
    "\u2581face": 275,
    "\u2581LORD": 276,
    "\u2581thing": 277,
    "\u2581asked": 278,
    "\u2581long": 279,
    "\u2581off": 280,
    "\u2581evil": 281,
    "\u2581words": 282,
    "est": 283,
    "\u2581art": 284,
    "\u2581head": 285,
    "\u2581well": 286,
    "\u2581hands": 287,
    "\u2581sat": 288,
    "\u2581death": 289,
    "\u2581So": 290,
    "\u2581kingdom": 291,
    "\u2581Thou": 292,
    "\u2581Jews": 293,
    "\u2581th": 294,
    "\u2581mother": 295,
    "\u2581while": 296,
    "\u2581nothing": 297,
    "\u2581unti": 298,
    "\u2581bear": 299,
    "\u2581light": 300,
    "very": 301,
    "\u2581stood": 302,
    "\u2581ever": 303,
    "\u2581themselves": 304,
    "\u2581Paul": 305,
    "\u2581gold": 306,
    "\u2581lay": 307,
    "\u2581Let": 308,
    "\u2581keep": 309,
    "ose": 310,
    "\u2581Zuckerman": 311,
    "\u2581sea": 312,
    "\u2581side": 313,
    "\u2581Behold": 314,
    "\u2581Fern": 315,
    "soever": 316,
    "\u2581s": 317,
    "\u2581looked": 318,
    "er": 319,
    "\u2581Jerusalem": 320,
    "\u2581Peter": 321,
    "\u2581seen": 322,
    "\u2581Ye": 323,
    "\u2581sin": 324,
    "\u2581thine": 325,
    "\u2581cometh": 326,
    "\u2581Be": 327,
    "\u2581woman": 328,
    "\u2581certain": 329,
    "\u2581ground": 330,
    "\u2581end": 331,
    "\u2581chief": 332,
    "\u2581She": 333,
    "\u2581body": 334,
    "\u2581We": 335,
    "\u2581knew": 336,
    "\u2581In": 337,
    "\u2581fear": 338,
    "\u2581just": 339,
    "\u2581power": 340,
    "\u2581feet": 341,
    "\u2581morning": 342,
    "\u2581such": 343,
    "n": 344,
    "\u2581pig": 345,
    "\u2581tree": 346,
    "\u2581hundred": 347,
    "\u2581sheep": 348,
    "\u2581holy": 349,
    "\u2581whole": 350,
    "\u2581bread": 351,
    "\u2581Aaron": 352,
    "\u2581began": 353,
    "\u2581must": 354,
    "\u2581John": 355,
    "\u2581servant": 356,
    "\u2581receive": 357,
    "\u2581multitude": 358,
    "\u2581told": 359,
    "a": 360,
    "\u2581toward": 361,
    "\u2581written": 362,
    "\u2581die": 363,
    "\u2581There": 364,
    "\u2581seed": 365,
    "\u2581peace": 366,
    "\u2581going": 367,
    "\u2581here": 368,
    "\u2581servants": 369,
    "\u2581believe": 370,
    "\u2581new": 371,
    "\u2581live": 372,
    "\u2581works": 373,
    "\u2581truth": 374,
    "ll": 375,
    "\u2581fell": 376,
    "\u2581spirit": 377,
    "re": 378,
    "\u2581grace": 379,
    "\u2581high": 380,
    "\u2581witness": 381,
    "\u2581get": 382,
    "\u2581mouth": 383,
    "\u2581four": 384,
    "\u2581S": 385,
    "\u2581tabernacle": 386,
    "\u2581concern": 387,
    "\u2581each": 388,
    "\u2581coming": 389,
    "\u2581near": 390,
    "\u2581Isaac": 391,
    "\u2581commanded": 392,
    "\u2581pray": 393,
    "\u2581find": 394,
    "\u2581Charley": 395,
    "\u2581five": 396,
    "\u2581web": 397,
    "\u2581tell": 398,
    "\u2581still": 399,
    "\u2581spoken": 400,
    "\u2581become": 401,
    "\u2581hour": 402,
    "\u2581white": 403,
    "\u2014": 404,
    "\u2581part": 405,
    "een": 406,
    "\u2581F": 407,
    "\u2581sight": 408,
    "\u2581laid": 409,
    "\u2581received": 410,
    "\u2581though": 411,
    "\u2581child": 412,
    "\u2581round": 413,
    "\u2581mine": 414,
    "\u2581betw": 415,
    "\u2581seek": 416,
    "\u2581Who": 417,
    "\u2581altar": 418,
    "\u2581manner": 419,
    "\u2581never": 420,
    "\u2581full": 421,
    "\u2581temple": 422,
    "\u2581walk": 423,
    "\u2581river": 424,
    "\u2581drink": 425,
    "\u2581stand": 426,
    "\u2581send": 427,
    "\u2581righteousness": 428,
    "\u2581field": 429,
    "\u2581think": 430,
    "ther": 431,
    "\u2581Holy": 432,
    "\u2581around": 433,
    "\u2581died": 434,
    "\u2581king": 435,
    "\u2581save": 436,
    "\u2581stone": 437,
    "\u2581daughter": 438,
    "\u2581living": 439,
    "\u2581Wherefore": 440,
    "\u2581Arable": 441,
    "\u2581angel": 442,
    "\u2581cried": 443,
    "\u2581cause": 444,
    "\u2581door": 445,
    "\u2581judgment": 446,
    "\u2581priest": 447,
    "\u2581enter": 448,
    "\u2581gospel": 449,
    "\u2581taken": 450,
    "\u2581known": 451,
    "\u2581young": 452,
    "\u2581mind": 453,
    "\u2581mercy": 454,
    "\u2581Gentiles": 455,
    "\u2581blessed": 456,
    "\u2581C": 457,
    "\u2581few": 458,
    "\u2581All": 459,
    "\u2581ask": 460,
    "\u2581bare": 461,
    "\u2581kill": 462,
    "\u2581look": 463,
    "\u2581hold": 464,
    "\u2581rest": 465,
    "\u2581hard": 466,
    "\u2581money": 467,
    "\u2581opened": 468,
    "\u2581believed": 469,
    "\u2581lord": 470,
    "\u2581second": 471,
    "\u2581gone": 472,
    "\u2581Templeton": 473,
    "\u2581un": 474,
    "\u2581hope": 475,
    "\u2581Pharisees": 476,
    "\u2581call": 477,
    "\u2581show": 478,
    "\u2581My": 479,
    "\u2581entered": 480,
    "\u2581Esau": 481,
    "\u2581last": 482,
    "\u2581don": 483,
    "\u2581gathered": 484,
    "ter": 485,
    "\u2581daughters": 486,
    "\u2581Go": 487,
    "\u2581born": 488,
    "\u2581twelve": 489,
    "\u2581wise": 490,
    "ce": 491,
    "\u2581able": 492,
    "\u2581walked": 493,
    "\u2581got": 494,
    "\u2581minister": 495,
    "\u2581third": 496,
    "\u2581always": 497,
    "\u2581lest": 498,
    "\u2581none": 499,
    "\u2581delivered": 500,
    "\u2581sake": 501,
    "\u2581dwell": 502,
    "\u2581As": 503,
    "\u2581too": 504,
    "\u2581righteous": 505,
    "\u2581yourselves": 506,
    "\u2581country": 507,
    "\u2581cannot": 508,
    "\u2581sure": 509,
    "\u2581became": 510,
    "\u2581raised": 511,
    "\u2581Avery": 512,
    "\u2581whe": 513,
    "\u2581prophets": 514,
    "\u2581above": 515,
    "\u2581barn": 516,
    "\u2581followed": 517,
    "\u2581You": 518,
    "\u2581beast": 519,
    "\u2581thought": 520,
    "\u2581priests": 521,
    "\u2581mount": 522,
    "\u2581judge": 523,
    "\u2581offering": 524,
    "\u2581cattle": 525,
    "\u2581angels": 526,
    "\u2581women": 527,
    "\u2581food": 528,
    "\u2581looking": 529,
    "\u2581fruit": 530,
    "\u2581year": 531,
    "\u2581joy": 532,
    "\u2581half": 533,
    "\u2581true": 534,
    "\u2581midst": 535,
    "\u2581How": 536,
    "\u2581soul": 537,
    "\u2581fine": 538,
    "\u2581indeed": 539,
    "\u2581anything": 540,
    "\u2581To": 541,
    "\u2581most": 542,
    "\u2581filled": 543,
    "\u2581elders": 544,
    "\u2581wood": 545,
    "\u2581serve": 546,
    "\u2581covenant": 547,
    "\u2581remember": 548,
    "\u2581ten": 549,
    "\u2581fall": 550,
    "\u2581small": 551,
    "\u2581dark": 552,
    "\u2581Simon": 553,
    "\u2581silver": 554,
    "\u2581Every": 555,
    "\u2581Egyptians": 556,
    "\u2581sun": 557,
    "\u2581ran": 558,
    "\u2581sins": 559,
    "\u2581returned": 560,
    "es": 561,
    "\u2581church": 562,
    "\u2581Smith": 563,
    "\u2581sabbath": 564,
    "\u2581Lurvy": 565,
    "\u2581lived": 566,
    "rose": 567,
    "\u2581waters": 568,
    "ness": 569,
    "\u2581fathers": 570,
    "\u2581fish": 571,
    "\u2581strong": 572,
    "\u2581thousand": 573,
    "\u2581myself": 574,
    "\u2581turned": 575,
    "\u2581prophet": 576,
    "\u2581kept": 577,
    "\u2581alone": 578,
    "\u2581darkness": 579,
    "\u2581Why": 580,
    "\u2581far": 581,
    "\u2581One": 582,
    "\u2581That": 583,
    "\u2581sign": 584,
    "\u2581home": 585,
    "\u2581why": 586,
    "\u2581ready": 587,
    "\u2581ears": 588,
    "\u2581feast": 589,
    "\u2581turn": 590,
    "\u2581sleep": 591,
    "\u2581eternal": 592,
    "en": 593,
    "\u2581didn": 594,
    "\u2581saved": 595,
    "\u2581spider": 596,
    "\u2581big": 597,
    "\u2581straightway": 598,
    "\u2581others": 599,
    "\u2581along": 600,
    "\u2581departed": 601,
    "\u2581rat": 602,
    "\u2581wilderness": 603,
    "\u2581wisdom": 604,
    "\u2581Abram": 605,
    "\u2581ark": 606,
    "\u2581whatsoever": 607,
    "\u2581passed": 608,
    "\u2581seeing": 609,
    "\u2581loved": 610,
    "\u2581need": 611,
    "\u2581something": 612,
    "\u2581except": 613,
    "\u2581better": 614,
    "\u2581till": 615,
    "\u2581wine": 616,
    "\u2581within": 617,
    "ve": 618,
    "ers": 619,
    "\u2581wind": 620,
    "\u2581commandment": 621,
    "gat": 622,
    "You": 623,
    "\u2581seem": 624,
    "\u2581linen": 625,
    "out": 626,
    "us": 627,
    "\u2581nations": 628,
    "\u2581its": 629,
    "\u2581standing": 630,
    "\u2581leave": 631,
    "\u2581follow": 632,
    "\u2581write": 633,
    "\u2581T": 634,
    "\u2581beginning": 635,
    "\u2581sitting": 636,
    "\u2581saints": 637,
    "erily": 638,
    "\u2581His": 639,
    "\u2581appeared": 640,
    "\u2581goose": 641,
    "\u2581mountains": 642,
    "\u2581reason": 643,
    "\u2581top": 644,
    "\u2581deep": 645,
    "\u2581present": 646,
    "\u2581fulfilled": 647,
    "\u2581knowledge": 648,
    "\u2581Come": 649,
    "\u2581scribes": 650,
    "\u2581ought": 651,
    "an": 652,
    "\u2581air": 653,
    "\u2581tent": 654,
    "\u2581David": 655,
    "\u2581Laban": 656,
    "\u2581authority": 657,
    "\u2581rather": 658,
    "\u2581thyself": 659,
    "\u2581Bless": 660,
    "\u2581wilt": 661,
    "\u2581sh": 662,
    "\u2581cut": 663,
    "\u2581husband": 664,
    "\u2581meet": 665,
    "\u2581wrath": 666,
    "\u2581behind": 667,
    "\u2581pure": 668,
    "If": 669,
    "\u2581yea": 670,
    "\u2581want": 671,
    "\u2581destroy": 672,
    "\u2581Chap": 673,
    "\u2581afraid": 674,
    "\u2581congregation": 675,
    "\u2581baptized": 676,
    "\u2581foot": 677,
    "\u2581generations": 678,
    "\u2581leaves": 679,
    "\u2581kind": 680,
    "\u2581throne": 681,
    "\u2581help": 682,
    "\u2581visit": 683,
    "hall": 684,
    "\u2581apostles": 685,
    "\u2581master": 686,
    "\u2581sick": 687,
    "\u2581Canaan": 688,
    "\u2581bound": 689,
    "\u2581Galilee": 690,
    "\u2581next": 691,
    "\u2581replied": 692,
    "\u2581try": 693,
    "\u2581wherein": 694,
    "\u2581cup": 695,
    "\u2581soldiers": 696,
    "\u2581garments": 697,
    "\u2581teaching": 698,
    "or": 699,
    "\u2581watch": 700,
    "\u2581woods": 701,
    "\u2581boy": 702,
    "\u2581friend": 703,
    "\u2581p": 704,
    "\u2581deliver": 705,
    "le": 706,
    "\u2581deal": 707,
    "\u2581sockets": 708,
    "\u2581Take": 709,
    "\u2581worthy": 710,
    "\u2581beloved": 711,
    "\u2581therein": 712,
    "\u2581bed": 713,
    "\u2581boys": 714,
    "\u2581thence": 715,
    "\u2581knoweth": 716,
    "\u2581hair": 717,
    "\u2581preach": 718,
    "\u2581meat": 719,
    "\u2581f": 720,
    "\u2581arose": 721,
    "\u2581six": 722,
    "\u2581knowing": 723,
    "\u2581has": 724,
    "\u2581nigh": 725,
    "\u2581twenty": 726,
    "\u2581salvation": 727,
    "\u2581Noah": 728,
    "\u2581rain": 729,
    "\u2581thus": 730,
    "\u2581held": 731,
    "\u2581E": 732,
    "\u2581fast": 733,
    "\u2581signs": 734,
    "\u2581suffer": 735,
    "\u2581At": 736,
    "\u2581teach": 737,
    "\u2581eye": 738,
    "\u2581blind": 739,
    "\u2581smell": 740,
    "\u2581clean": 741,
    "\u2581M": 742,
    "\u2581curtain": 743,
    "\u2581testimony": 744,
    "\u2581straw": 745,
    "\u2581everything": 746,
    "\u2581blue": 747,
    "\u2581firstborn": 748,
    "\u2581Bear": 749,
    "\u2581sit": 750,
    "\u2581free": 751,
    "\u2581soon": 752,
    "\u2581cubits": 753,
    "\u2581desire": 754,
    "p": 755,
    "\u2581hearts": 756,
    "\u2581honor": 757,
    "\u2581Pilate": 758,
    "\u2581enough": 759,
    "\u2581Therefore": 760,
    "\u2581lifted": 761,
    "\u2581once": 762,
    "\u2581demons": 763,
    "\u2581Indians": 764,
    "\u2581perfect": 765,
    "\u2581nation": 766,
    "\u2581doeth": 767,
    "What": 768,
    "\u2581Do": 769,
    "\u2581No": 770,
    "\u2581abide": 771,
    "\u2581Rachel": 772,
    "\u2581Even": 773,
    "\u2581bega": 774,
    "\u2581By": 775,
    "\u2581forty": 776,
    "\u2581Jud": 777,
    "\u2581red": 778,
    "drew": 779,
    "\u2581sacrifice": 780,
    "\u2581P": 781,
    "\u2581court": 782,
    "\u2581sister": 783,
    "\u2581cloud": 784,
    "\u2581named": 785,
    "\u2581table": 786,
    "\u2581mountain": 787,
    "\u2581answer": 788,
    "\u2581alive": 789,
    "\u2581Judah": 790,
    "\u2581camp": 791,
    "\u2581moved": 792,
    "\u2581greater": 793,
    "\u2581evening": 794,
    "\u2581dream": 795,
    "al": 796,
    "ous": 797,
    "\u2581matter": 798,
    "\u2581month": 799,
    "\u2581verily": 800,
    "\u2581Mary": 801,
    "\u2581broken": 802,
    "able": 803,
    "\u2581lie": 804,
    "\u2581Yea": 805,
    "\u2581sound": 806,
    "\u2581promise": 807,
    "\u2581Where": 808,
    "\u2581boat": 809,
    "cross": 810,
    "S": 811,
    "\u2581gather": 812,
    "\u2581ate": 813,
    "\u2581book": 814,
    "\u2581After": 815,
    "\u2581dwelt": 816,
    "\u2581enemies": 817,
    "\u2581faithful": 818,
    "\u2581Of": 819,
    "\u2581mighty": 820,
    "\u2581prison": 821,
    "\u2581tongue": 822,
    "\u2581kings": 823,
    "\u2581wait": 824,
    "\u2581multitudes": 825,
    "\u2581presence": 826,
    "\u2581taught": 827,
    "\u2581grew": 828,
    "\u2581carried": 829,
    "\u2581since": 830,
    "\u2581sold": 831,
    "\u2581hanging": 832,
    "\u2581almo": 833,
    "ion": 834,
    "\u2581led": 835,
    "\u2581preached": 836,
    "\u2581cross": 837,
    "\u2581start": 838,
    "ies": 839,
    "It": 840,
    "less": 841,
    "\u2581walking": 842,
    "\u2581journey": 843,
    "\u2581synagogue": 844,
    "\u2581rock": 845,
    "\u2581worship": 846,
    "\u2581lo": 847,
    "\u2581purple": 848,
    "\u2581Sarah": 849,
    "\u2581felt": 850,
    "\u2581hearken": 851,
    "\u2581sweet": 852,
    "\u2581thirty": 853,
    "\u2581oil": 854,
    "\u2581B": 855,
    "sought": 856,
    "\u2581times": 857,
    "\u2581war": 858,
    "\u2581goeth": 859,
    "\u2581re": 860,
    "\u2581crate": 861,
    "\u2581point": 862,
    "\u2581understand": 863,
    "\u2581stones": 864,
    "\u2581rich": 865,
    "\u2581please": 866,
    "\u2581eight": 867,
    "\u2581loud": 868,
    "\u2581resurrection": 869,
    "\u2581least": 870,
    "\u2581trees": 871,
    "\u2581early": 872,
    "\u2581burnt": 873,
    "as": 874,
    "\u2581measure": 875,
    "\u2581sword": 876,
    "\u2581fellow": 877,
    "\u2581egg": 878,
    "\u2581offer": 879,
    "\u2581Herod": 880,
    "\u2581Littlefish": 881,
    "\u2581ourselves": 882,
    "\u2581branches": 883,
    "\u2581neck": 884,
    "\u2581warm": 885,
    "\u2581brass": 886,
    "\u2581rings": 887,
    "\u2581vain": 888,
    "\u2581blessing": 889,
    "\u2581speaketh": 890,
    "\u2581killed": 891,
    "\u2581souls": 892,
    "\u2581service": 893,
    "\u2581ear": 894,
    "on": 895,
    "\u2581N": 896,
    "fore": 897,
    "\u2581wives": 898,
    "\u2581else": 899,
    "\u2581herself": 900,
    "\u2581younger": 901,
    "\u2581arise": 902,
    "\u2581rulers": 903,
    "ment": 904,
    "\u2581boards": 905,
    "\u2581See": 906,
    "\u2581bless": 907,
    "\u2581prayer": 908,
    "\u2581continue": 909,
    "\u2581strength": 910,
    "\u2581fifty": 911,
    "\u2581beyond": 912,
    "\u2581milk": 913,
    "\u2581lead": 914,
    "\u2581morrow": 915,
    "\u2581healed": 916,
    "\u2581open": 917,
    "body": 918,
    "\u2581generation": 919,
    "\u2581names": 920,
    "\u2581On": 921,
    "\u2581manifest": 922,
    "in": 923,
    "\u2581false": 924,
    "\u2581Thu": 925,
    "\u2581scarlet": 926,
    "\u2581apart": 927,
    "\u2581quit": 928,
    "\u2581Teacher": 929,
    "\u2581James": 930,
    "\u2581spread": 931,
    "\u2581fled": 932,
    "\u2581judged": 933,
    "\u2581number": 934,
    "\u2581black": 935,
    "\u2581gift": 936,
    "\u2581read": 937,
    "\u2581smoke": 938,
    "\u2581rejoice": 939,
    "\u2581poor": 940,
    "\u2581buried": 941,
    "\u2581grey": 942,
    "\u2581wrought": 943,
    "\u2581dry": 944,
    "\u2581already": 945,
    "\u2581soil": 946,
    "\u2581front": 947,
    "\u2581abideth": 948,
    "\u2581age": 949,
    "\u2581appointed": 950,
    "\u2581Lot": 951,
    "\u2581pillars": 952,
    "\u2581horses": 953,
    "\u2581pieces": 954,
    "\u2581means": 955,
    "\u2581friends": 956,
    "\u2581break": 957,
    "\u2581build": 958,
    "\u2581order": 959,
    "\u2581apple": 960,
    "\u2581speaking": 961,
    "Well": 962,
    "\u2581weak": 963,
    "\u2581houses": 964,
    "\u2581pen": 965,
    "\u2581crown": 966,
    "\u2581return": 967,
    "one": 968,
    "\u2581low": 969,
    "\u2581Satan": 970,
    "\u2581making": 971,
    "\u2581Leah": 972,
    "\u2581Fair": 973,
    "\u2581Nation": 974,
    "\u2581dust": 975,
    "\u2581east": 976,
    "\u2581gain": 977,
    "\u2581Thy": 978,
    "\u2581gods": 979,
    "\u2581sinners": 980,
    "\u2581shew": 981,
    "\u2581fat": 982,
    "ward": 983,
    "it": 984,
    "ty": 985,
    "\u2581gate": 986,
    "rom": 987,
    "\u2581comfort": 988,
    "\u2581places": 989,
    "\u2581corn": 990,
    "\u2581shame": 991,
    "\u2581worshipped": 992,
    "\u2581fallen": 993,
    "\u2581stopped": 994,
    "\u2581vessels": 995,
    "\u2581thanks": 996,
    "\u2581heavens": 997,
    "\u2581giveth": 998,
    "\u2581bad": 999,
    "\u2581stay": 1000,
    "\u2581tomb": 1001,
    "much": 1002,
    "\u2581length": 1003,
    "\u2581anoint": 1004,
    "\u2581close": 1005,
    "\u2581praise": 1006,
    "\u2581draw": 1007,
    "\u2581unclean": 1008,
    "\u2581grow": 1009,
    "\u2581Wolf": 1010,
    "\u2581beautiful": 1011,
    "\u2581crucified": 1012,
    "\u2581kiss": 1013,
    "\u2581ephod": 1014,
    "\u2581circumcision": 1015,
    "\u2581trough": 1016,
    "\u2581cold": 1017,
    "\u2581justified": 1018,
    "\u2581Give": 1019,
    "\u2581course": 1020,
    "\u2581King": 1021,
    "\u2581finished": 1022,
    "\u2581lost": 1023,
    "\u2581climbed": 1024,
    "\u2581animals": 1025,
    "with": 1026,
    "ation": 1027,
    "\u2581run": 1028,
    "el": 1029,
    "\u2581famine": 1030,
    "h": 1031,
    "\u2581board": 1032,
    "\u2581command": 1033,
    "\u2581feel": 1034,
    "\u2581exceeding": 1035,
    "\u2581rise": 1036,
    "\u2581wrong": 1037,
    "\u2581Philip": 1038,
    "\u2581abroad": 1039,
    "\u2581Rebekah": 1040,
    "\u2581devil": 1041,
    "\u2581shut": 1042,
    "\u2581south": 1043,
    "\u2581past": 1044,
    "\u2581Judas": 1045,
    "\u2581moment": 1046,
    "\u2581itself": 1047,
    "\u2581prepared": 1048,
    "\u2581talked": 1049,
    "\u2581often": 1050,
    "\u2581seventh": 1051,
    "\u2581offered": 1052,
    "\u2581suffered": 1053,
    "\u2581Not": 1054,
    "\u2581seat": 1055,
    "\u2581working": 1056,
    "\u2581commandments": 1057,
    "\u2581burn": 1058,
    "ur": 1059,
    "\u2581sorrow": 1060,
    "\u2581scripture": 1061,
    "\u2581Indian": 1062,
    "\u2581dis": 1063,
    "\u2581best": 1064,
    "\u2581perish": 1065,
    "\u2581grass": 1066,
    "\u2581office": 1067,
    "\u2581foolish": 1068,
    "\u2581Cherokee": 1069,
    "\u2581asleep": 1070,
    "\u2581beseech": 1071,
    "\u2581staves": 1072,
    "\u2581summer": 1073,
    "\u2581reward": 1074,
    "\u2581passover": 1075,
    "\u2581speech": 1076,
    "\u2581room": 1077,
    "\u2581conceived": 1078,
    "\u2581Amen": 1079,
    "\u2581green": 1080,
    "\u2581crowd": 1081,
    "A": 1082,
    "\u2581pleased": 1083,
    "\u2581covered": 1084,
    "\u2581believeth": 1085,
    "\u2581understanding": 1086,
    "\u2581flocks": 1087,
    "\u2581tongues": 1088,
    "\u2581members": 1089,
    "\u2581met": 1090,
    "\u2581season": 1091,
    "\u2581smite": 1092,
    "\u2581counsel": 1093,
    "\u2581hearing": 1094,
    "\u2581edge": 1095,
    "\u2581bow": 1096,
    "\u2581image": 1097,
    "\u2581captain": 1098,
    "\u2581parable": 1099,
    "\u2581tribe": 1100,
    "\u2581piece": 1101,
    "gotten": 1102,
    "\u2581sharp": 1103,
    "\u2581reign": 1104,
    "\u2581care": 1105,
    "\u2581bright": 1106,
    "\u2581subject": 1107,
    "\u2581fornication": 1108,
    "\u2581patience": 1109,
    "\u2581salute": 1110,
    "\u2581writing": 1111,
    "\u2581sky": 1112,
    "\u2581wept": 1113,
    "\u2581swim": 1114,
    "\u2581guard": 1115,
    "\u2581buy": 1116,
    "\u2581slay": 1117,
    "\u2581divided": 1118,
    "\u2581beheld": 1119,
    "\u2581eaten": 1120,
    "\u2581troubled": 1121,
    "\u2581dur": 1122,
    "\u2581legs": 1123,
    "\u2581crying": 1124,
    "\u2581riches": 1125,
    "\u2581hid": 1126,
    "\u2581loveth": 1127,
    "\u2581wanted": 1128,
    "\u2581forward": 1129,
    "am": 1130,
    "\u2581prayed": 1131,
    "ng": 1132,
    "\u2581committe": 1133,
    "\u2581depart": 1134,
    "ful": 1135,
    "\u2581duke": 1136,
    "\u2581creature": 1137,
    "\u2581flock": 1138,
    "\u2581b": 1139,
    "\u2581lift": 1140,
    "\u2581repent": 1141,
    "\u2581short": 1142,
    "\u2581strange": 1143,
    "\u2581forgive": 1144,
    "\u2581eating": 1145,
    "\u2581ox": 1146,
    "\u2581incense": 1147,
    "\u2581large": 1148,
    "\u2581account": 1149,
    "\u2581truck": 1150,
    "\u2581spiritual": 1151,
    "\u2581Adam": 1152,
    "\u2581glorified": 1153,
    "\u2581Sodom": 1154,
    "\u2581pay": 1155,
    "ittim": 1156,
    "\u2581Lamb": 1157,
    "\u2581immediately": 1158,
    "\u2581circumcised": 1159,
    "\u2581churches": 1160,
    "\u2581yard": 1161,
    "\u2581Th": 1162,
    "\u2581poured": 1163,
    "\u2581clothes": 1164,
    "\u2581closed": 1165,
    "\u2581thereon": 1166,
    "\u2581raise": 1167,
    "\u2581touched": 1168,
    "\u2581breadth": 1169,
    "\u2581bowed": 1170,
    "\u2581receiveth": 1171,
    "\u2581sore": 1172,
    "\u2581rod": 1173,
    "\u2581besought": 1174,
    "\u2581bit": 1175,
    "ir": 1176,
    "\u2581putt": 1177,
    "\u2581wax": 1178,
    "\u2581e": 1179,
    "\u2581mean": 1180,
    "\u2581disciple": 1181,
    "\u2581stranger": 1182,
    "\u2581touch": 1183,
    "\u2581carry": 1184,
    "\u2581wash": 1185,
    "\u2581glad": 1186,
    "\u2581quiet": 1187,
    "\u2581lawful": 1188,
    "\u2581council": 1189,
    "\u2581Barnabas": 1190,
    "\u2581Woe": 1191,
    "\u2581garden": 1192,
    "\u2581iniquity": 1193,
    "\u2581hurt": 1194,
    "\u2581whither": 1195,
    "\u2581cities": 1196,
    "\u2581tried": 1197,
    "\u2581empty": 1198,
    "\u2581deny": 1199,
    "\u2581lad": 1200,
    "\u2581bought": 1201,
    "\u2581exceedingly": 1202,
    "\u2581pulled": 1203,
    "\u2581pit": 1204,
    "\u2581happened": 1205,
    "\u2581longer": 1206,
    "\u2581charged": 1207,
    "\u2581hated": 1208,
    "\u2581manifested": 1209,
    "\u2581knowest": 1210,
    "\u2581worketh": 1211,
    "\u2581less": 1212,
    "\u2581greatly": 1213,
    "\u2581sac": 1214,
    "\u2581reach": 1215,
    "taking": 1216,
    "\u2581breastplate": 1217,
    "\u2581Lo": 1218,
    "\u2581garment": 1219,
    "of": 1220,
    "\u2581multiply": 1221,
    "\u2581t": 1222,
    "\u2581obey": 1223,
    "\u2581car": 1224,
    "ri": 1225,
    "\u2581Some": 1226,
    "ted": 1227,
    "\u2581road": 1228,
    "\u2581Jackson": 1229,
    "\u2581couple": 1230,
    "\u2581guess": 1231,
    "\u2581spent": 1232,
    "\u2581bondage": 1233,
    "\u2581created": 1234,
    "\u2581built": 1235,
    "\u2581brown": 1236,
    "\u2581swear": 1237,
    "at": 1238,
    "\u2581quickly": 1239,
    "giving": 1240,
    "\u2581self": 1241,
    "\u2581h": 1242,
    "o": 1243,
    "\u2581nine": 1244,
    "\u2581stretched": 1245,
    "\u2581trouble": 1246,
    "\u2581Are": 1247,
    "\u2581couldn": 1248,
    "\u2581wonders": 1249,
    "\u2581touching": 1250,
    "\u2581stars": 1251,
    "sar": 1252,
    "\u2581purpose": 1253,
    "\u2581gifts": 1254,
    "\u2581heads": 1255,
    "and": 1256,
    "is": 1257,
    "day": 1258,
    "\u2581D": 1259,
    "ear": 1260,
    "ped": 1261,
    "\u2581afternoon": 1262,
    "\u2581foundation": 1263,
    "\u2581appear": 1264,
    "\u2581Jew": 1265,
    "\u2581cry": 1266,
    "\u2581rule": 1267,
    "\u2581wall": 1268,
    "\u2581spirits": 1269,
    "\u2581straight": 1270,
    "\u2581Abimelech": 1271,
    "\u2581bottom": 1272,
    "\u2581caught": 1273,
    "\u2581conscience": 1274,
    "\u2581twin": 1275,
    "\u2581unleavened": 1276,
    "\u2581Elijah": 1277,
    "\u2581hungry": 1278,
    "\u2581story": 1279,
    "\u2581winter": 1280,
    "\u2581teeth": 1281,
    "\u2581catch": 1282,
    "\u2581household": 1283,
    "\u2581sinned": 1284,
    "\u2581With": 1285,
    "\u2581really": 1286,
    "\u2581risen": 1287,
    "\u2581learned": 1288,
    "\u2581beat": 1289,
    "\u2581sides": 1290,
    "\u2581ways": 1291,
    "\u2581watched": 1292,
    "\u2581ones": 1293,
    "\u2581skins": 1294,
    "im": 1295,
    "\u2581calling": 1296,
    "\u2581months": 1297,
    "\u2581faces": 1298,
    "\u2581horse": 1299,
    "\u2581H": 1300,
    "i": 1301,
    "for": 1302,
    "\u2581state": 1303,
    "\u2581tail": 1304,
    "\u2581creek": 1305,
    "\u2581ruler": 1306,
    "\u2581act": 1307,
    "Oh": 1308,
    "\u2581parts": 1309,
    "\u2581feed": 1310,
    "\u2581count": 1311,
    "\u2581double": 1312,
    "\u2581secret": 1313,
    "\u2581abound": 1314,
    "\u2581loose": 1315,
    "\u2581wild": 1316,
    "\u2581thin": 1317,
    "\u2581spoke": 1318,
    "\u2581Levi": 1319,
    "\u2581hither": 1320,
    "\u2581raiment": 1321,
    "\u2581glorify": 1322,
    "\u2581afar": 1323,
    "\u2581vineyard": 1324,
    "\u2581Ridge": 1325,
    "\u2581space": 1326,
    "\u2581pigpen": 1327,
    "\u2581goats": 1328,
    "\u2581wrote": 1329,
    "\u2581suddenly": 1330,
    "\u2581creep": 1331,
    "\u2581forgiven": 1332,
    "\u2581outside": 1333,
    "\u2581maid": 1334,
    "\u2581golden": 1335,
    "\u2581hot": 1336,
    "\u2581witnesses": 1337,
    "\u2581officers": 1338,
    "\u2581ends": 1339,
    "\u2581heed": 1340,
    "\u2581birds": 1341,
    "\u2581wet": 1342,
    "ar": 1343,
    "\u2581mayest": 1344,
    "\u2581eateth": 1345,
    "\u2581heavenly": 1346,
    "\u2581synagogues": 1347,
    "\u2581Whi": 1348,
    "\u2581feared": 1349,
    "\u2581beasts": 1350,
    "\u2581skin": 1351,
    "\u2581charge": 1352,
    "w": 1353,
    "rew": 1354,
    "\u2581pleasure": 1355,
    "\u2581pillar": 1356,
    "He": 1357,
    "\u2581L": 1358,
    "either": 1359,
    "\u2581remain": 1360,
    "\u2581play": 1361,
    "\u2581sail": 1362,
    "\u2581report": 1363,
    "ake": 1364,
    "\u2581confess": 1365,
    "\u2581inherit": 1366,
    "\u2581Benjamin": 1367,
    "\u2581Isaiah": 1368,
    "\u2581array": 1369,
    "\u2581haply": 1370,
    "\u2581remembrance": 1371,
    "\u2581womb": 1372,
    "\u2581Timothy": 1373,
    "\u2581mystery": 1374,
    "\u2581daily": 1375,
    "\u2581hail": 1376,
    "\u2581tired": 1377,
    "\u2581fence": 1378,
    "\u2581likewise": 1379,
    "\u2581inheritance": 1380,
    "\u2581arrived": 1381,
    "\u2581Put": 1382,
    "\u2581Have": 1383,
    "\u2581inside": 1384,
    "\u2581talking": 1385,
    "\u2581camels": 1386,
    "\u2581weight": 1387,
    "\u2581lose": 1388,
    "ah": 1389,
    "\u2581breath": 1390,
    "\u2581heareth": 1391,
    "\u2581willing": 1392,
    "\u2581d": 1393,
    "\u2581g": 1394,
    "\u2581c": 1395,
    "rs": 1396,
    "\u2581spring": 1397,
    "ity": 1398,
    "\u2581fight": 1399,
    "\u2581\u2014": 1400,
    "\u2581candlestick": 1401,
    "\u2581village": 1402,
    "\u2581lamb": 1403,
    "\u2581cover": 1404,
    "\u2581coat": 1405,
    "\u2581finger": 1406,
    "adventure": 1407,
    "\u2581W": 1408,
    "\u2581song": 1409,
    "Yes": 1410,
    "\u2581bury": 1411,
    "\u2581fashion": 1412,
    "\u2581establish": 1413,
    "\u2581thank": 1414,
    "\u2581possess": 1415,
    "\u2581stumble": 1416,
    "\u2581flee": 1417,
    "\u2581ashamed": 1418,
    "\u2581dominion": 1419,
    "\u2581flood": 1420,
    "\u2581knife": 1421,
    "\u2581trail": 1422,
    "\u2581devour": 1423,
    "\u2581precious": 1424,
    "\u2581Saviour": 1425,
    "\u2581vail": 1426,
    "\u2581happy": 1427,
    "\u2581marry": 1428,
    "\u2581further": 1429,
    "\u2581Perry": 1430,
    "\u2581possible": 1431,
    "\u2581elect": 1432,
    "\u2581adultery": 1433,
    "\u2581smote": 1434,
    "\u2581sware": 1435,
    "\u2581amazed": 1436,
    "\u2581stick": 1437,
    "\u2581slowly": 1438,
    "\u2581scattered": 1439,
    "\u2581sort": 1440,
    "\u2581hardened": 1441,
    "\u2581sixth": 1442,
    "\u2581hire": 1443,
    "\u2581bones": 1444,
    "\u2581borne": 1445,
    "\u2581hence": 1446,
    "\u2581liveth": 1447,
    "\u2581burned": 1448,
    "\u2581feeling": 1449,
    "ily": 1450,
    "\u2581notice": 1451,
    "\u2581destroyed": 1452,
    "\u2581strangers": 1453,
    "\u2581doing": 1454,
    "\u2581Is": 1455,
    "\u2581R": 1456,
    "\u2581perceive": 1457,
    "\u2581Salut": 1458,
    "\u2581hole": 1459,
    "\u2581Hebrew": 1460,
    "\u2581cubit": 1461,
    "\u2581ship": 1462,
    "\u2581sanctif": 1463,
    "\u2581curse": 1464,
    "\u2581grave": 1465,
    "\u2581naked": 1466,
    "\u2581supper": 1467,
    "\u2581Macedonia": 1468,
    "\u2581Spearfinger": 1469,
    "\u2581behalf": 1470,
    "\u2581ignorant": 1471,
    "\u2581thither": 1472,
    "\u2581bottle": 1473,
    "\u2581crawl": 1474,
    "\u2581Saul": 1475,
    "\u2581idea": 1476,
    "\u2581loaves": 1477,
    "\u2581reproach": 1478,
    "\u2581cheer": 1479,
    "\u2581moon": 1480,
    "\u2581Arise": 1481,
    "\u2581tidings": 1482,
    "\u2581handmaid": 1483,
    "\u2581decided": 1484,
    "\u2581horns": 1485,
    "\u2581wide": 1486,
    "\u2581idols": 1487,
    "\u2581fly": 1488,
    "\u2581shoes": 1489,
    "\u2581knees": 1490,
    "\u2581bonds": 1491,
    "\u2581washed": 1492,
    "\u2581goods": 1493,
    "ate": 1494,
    "\u2581either": 1495,
    "\u2581letters": 1496,
    "\u2581use": 1497,
    "\u2581move": 1498,
    "\u2581eggs": 1499,
    "\u2581tables": 1500,
    "\u2581sacrifices": 1501,
    "g": 1502,
    "\u2581thinking": 1503,
    "\u2581form": 1504,
    "\u2581needs": 1505,
    "nto": 1506,
    "\u2581accuse": 1507,
    "\u2581bearing": 1508,
    "\u2581question": 1509,
    "\u2581demon": 1510,
    "\u2581affliction": 1511,
    "\u2581governor": 1512,
    "\u2581root": 1513,
    "\u2581possession": 1514,
    "\u2581neighbor": 1515,
    "\u2581wheel": 1516,
    "\u2581host": 1517,
    "\u2581corner": 1518,
    "\u2581afterward": 1519,
    "\u2581clear": 1520,
    "How": 1521,
    "But": 1522,
    "\u2581worry": 1523,
    "\u2581regard": 1524,
    "\u2581proceed": 1525,
    "nt": 1526,
    "\u2581forbid": 1527,
    "\u2581shoulder": 1528,
    "\u2581wicked": 1529,
    "\u2581grievous": 1530,
    "\u2581late": 1531,
    "\u2581Cain": 1532,
    "\u2581Claire": 1533,
    "\u2581Jordan": 1534,
    "\u2581abode": 1535,
    "\u2581centurion": 1536,
    "\u2581company": 1537,
    "\u2581marriage": 1538,
    "\u2581neighbour": 1539,
    "\u2581flies": 1540,
    "\u2581parents": 1541,
    "\u2581families": 1542,
    "\u2581struck": 1543,
    "\u2581breakfast": 1544,
    "\u2581nought": 1545,
    "\u2581business": 1546,
    "\u2581repentance": 1547,
    "\u2581subjection": 1548,
    "\u2581brake": 1549,
    "\u2581Most": 1550,
    "\u2581fill": 1551,
    "\u2581tiny": 1552,
    "\u2581cock": 1553,
    "\u2581begin": 1554,
    "\u2581direction": 1555,
    "\u2581sell": 1556,
    "\u2581robe": 1557,
    "\u2581anger": 1558,
    "\u2581marvelled": 1559,
    "\u2581Art": 1560,
    "\u2581tied": 1561,
    "ting": 1562,
    "\u2581reckoned": 1563,
    "\u2581Here": 1564,
    "\u2581covering": 1565,
    "ever": 1566,
    "\u2581lusts": 1567,
    "\u2581served": 1568,
    "\u2581fully": 1569,
    "\u2581height": 1570,
    "\u2581corners": 1571,
    "\u2581journeyed": 1572,
    "\u2581hate": 1573,
    "\u2581faint": 1574,
    "\u2581Her": 1575,
    "\u2581scriptures": 1576,
    "\u2581gates": 1577,
    "\u2581declare": 1578,
    "\u2581falling": 1579,
    "\u2581treasure": 1580,
    "the": 1581,
    "\u2581G": 1582,
    "\u2581commit": 1583,
    "ance": 1584,
    "\u2581voices": 1585,
    "\u2581labor": 1586,
    "ish": 1587,
    "\u2581tribulation": 1588,
    "red": 1589,
    "\u2581join": 1590,
    "\u2581arm": 1591,
    "\u2581apostle": 1592,
    "The": 1593,
    "times": 1594,
    "That": 1595,
    "\u2581profit": 1596,
    "\u2581utter": 1597,
    "\u2581strip": 1598,
    "\u2581change": 1599,
    "\u2581leaven": 1600,
    "\u2581stop": 1601,
    "\u2581refuse": 1602,
    "\u2581plain": 1603,
    "\u2581natural": 1604,
    "\u2581chose": 1605,
    "\u2581Again": 1606,
    "\u2581Brethren": 1607,
    "\u2581Grace": 1608,
    "\u2581Nazareth": 1609,
    "\u2581beneath": 1610,
    "\u2581geese": 1611,
    "\u2581middle": 1612,
    "\u2581woe": 1613,
    "\u2581fourteen": 1614,
    "\u2581fair": 1615,
    "\u2581respect": 1616,
    "\u2581spoil": 1617,
    "\u2581Asia": 1618,
    "\u2581abundantly": 1619,
    "\u2581Nay": 1620,
    "\u2581drove": 1621,
    "\u2581wish": 1622,
    "\u2581lying": 1623,
    "\u2581Know": 1624,
    "\u2581rent": 1625,
    "\u2581revealed": 1626,
    "\u2581Dr": 1627,
    "\u2581spin": 1628,
    "\u2581talents": 1629,
    "\u2581clothed": 1630,
    "\u2581ago": 1631,
    "\u2581persons": 1632,
    "\u2581remained": 1633,
    "ill": 1634,
    "\u2581fourth": 1635,
    "\u2581stayed": 1636,
    "\u2581wouldest": 1637,
    "\u2581creatures": 1638,
    "\u2581following": 1639,
    "\u2581perceiv": 1640,
    "\u2581drive": 1641,
    "\u2581rocks": 1642,
    "\u2581rush": 1643,
    "\u2581race": 1644,
    "\u2581star": 1645,
    "\u2581nights": 1646,
    "\u2581trust": 1647,
    "\u2581ass": 1648,
    "\u2581wear": 1649,
    "\u2581pain": 1650,
    "\u2581oath": 1651,
    "\u2581snow": 1652,
    "\u2581vision": 1653,
    "\u2581ram": 1654,
    "\u2581fowl": 1655,
    "\u2581miracle": 1656,
    "\u2581male": 1657,
    "\u2581serpent": 1658,
    "\u2581learn": 1659,
    "\u2581talk": 1660,
    "\u2581widow": 1661,
    "\u2581border": 1662,
    "ry": 1663,
    "k": 1664,
    "\u2581won": 1665,
    "\u2581redeem": 1666,
    "\u2581escape": 1667,
    "\u2581several": 1668,
    "\u2581lot": 1669,
    "he": 1670,
    "\u2581Antioch": 1671,
    "\u2581Crockett": 1672,
    "\u2581Ishmael": 1673,
    "\u2581Reuben": 1674,
    "\u2581Washington": 1675,
    "\u2581baptism": 1676,
    "\u2581cunning": 1677,
    "\u2581everlasting": 1678,
    "\u2581language": 1679,
    "\u2581leaving": 1680,
    "\u2581truly": 1681,
    "\u2581Sarai": 1682,
    "\u2581Sinai": 1683,
    "\u2581astray": 1684,
    "\u2581dawn": 1685,
    "\u2581slew": 1686,
    "\u2581nature": 1687,
    "\u2581sitteth": 1688,
    "\u2581colonel": 1689,
    "\u2581swallow": 1690,
    "\u2581Shechem": 1691,
    "\u2581Howbeit": 1692,
    "\u2581sanctuary": 1693,
    "\u2581tarried": 1694,
    "\u2581grain": 1695,
    "\u2581bitter": 1696,
    "\u2581yellow": 1697,
    "\u2581interpretation": 1698,
    "\u2581sanctified": 1699,
    "\u2581oxen": 1700,
    "\u2581sorry": 1701,
    "\u2581wheat": 1702,
    "\u2581fishes": 1703,
    "\u2581farm": 1704,
    "\u2581sown": 1705,
    "\u2581pail": 1706,
    "\u2581exalted": 1707,
    "\u2581Te": 1708,
    "\u2581weeping": 1709,
    "\u2581loosed": 1710,
    "\u2581line": 1711,
    "\u2581Look": 1712,
    "\u2581lower": 1713,
    "\u2581tears": 1714,
    "\u2581wipe": 1715,
    "ory": 1716,
    "\u2581sailed": 1717,
    "\u2581calleth": 1718,
    "\u2581counted": 1719,
    "\u2581comforted": 1720,
    "\u2581lines": 1721,
    "\u2581borders": 1722,
    "\u2581north": 1723,
    "\u2581noise": 1724,
    "\u2581watching": 1725,
    "\u2581turning": 1726,
    "\u2581st": 1727,
    "\u2581doest": 1728,
    "\u2581Br": 1729,
    "\u2581nose": 1730,
    "\u2581con": 1731,
    "\u2581spiders": 1732,
    "\u2581inso": 1733,
    "\u2581Oh": 1734,
    "\u2581cr": 1735,
    "\u2581offerings": 1736,
    "\u2581thoughts": 1737,
    "\u2581r": 1738,
    "\u2581per": 1739,
    "\u2581hide": 1740,
    "\u2581cabin": 1741,
    "\u2581exhort": 1742,
    "\u2581fig": 1743,
    "\u2581hill": 1744,
    "to": 1745,
    "Charlotte": 1746,
    "Now": 1747,
    "\u2581lack": 1748,
    "ch": 1749,
    "\u2581Ha": 1750,
    "\u2581dirt": 1751,
    "\u2581swam": 1752,
    "\u2581overcome": 1753,
    "\u2581building": 1754,
    "\u2581Asmeret": 1755,
    "\u2581Ephesus": 1756,
    "\u2581Hittite": 1757,
    "\u2581Nahor": 1758,
    "\u2581Simeon": 1759,
    "\u2581cellar": 1760,
    "\u2581harlot": 1761,
    "\u2581rope": 1762,
    "\u2581yield": 1763,
    "\u2581running": 1764,
    "\u2581Damascus": 1765,
    "\u2581different": 1766,
    "\u2581drank": 1767,
    "\u2581godliness": 1768,
    "\u2581common": 1769,
    "\u2581wings": 1770,
    "\u2581shook": 1771,
    "\u2581compassion": 1772,
    "\u2581grant": 1773,
    "\u2581beaten": 1774,
    "\u2581pick": 1775,
    "\u2581bigge": 1776,
    "\u2581chosen": 1777,
    "\u2581pool": 1778,
    "\u2581thorns": 1779,
    "\u2581asses": 1780,
    "\u2581An": 1781,
    "\u2581tempted": 1782,
    "\u2581jumped": 1783,
    "\u2581Did": 1784,
    "\u2581chains": 1785,
    "\u2581row": 1786,
    "\u2581Hear": 1787,
    "\u2581mourning": 1788,
    "men": 1789,
    "\u2581wor": 1790,
    "\u2581goodness": 1791,
    "\u2581herds": 1792,
    "\u2581pipe": 1793,
    "ants": 1794,
    "\u2581bowls": 1795,
    "\u2581pale": 1796,
    "\u2581lamps": 1797,
    "\u2581breaking": 1798,
    "\u2581arms": 1799,
    "\u2581lambs": 1800,
    "\u2581sayest": 1801,
    "\u2581Shem": 1802,
    "\u2581de": 1803,
    "\u2581withal": 1804,
    "\u2581prayers": 1805,
    "\u2581heal": 1806,
    "\u2581drinking": 1807,
    "\u2581commun": 1808,
    "\u2581judges": 1809,
    "\u2581fruits": 1810,
    "\u2581roll": 1811,
    "\u2581desert": 1812,
    "\u2581bringing": 1813,
    "\u2581girdle": 1814,
    "\u2581cave": 1815,
    "age": 1816,
    "\u2581stream": 1817,
    "\u2581week": 1818,
    "\u2581Greek": 1819,
    "\u2581bird": 1820,
    "\u2581glorying": 1821,
    "\u2581reap": 1822,
    "Good": 1823,
    "\u2581flow": 1824,
    "\u2581render": 1825,
    "laid": 1826,
    "\u2581letter": 1827,
    "\u2581flat": 1828,
    "\u2581haste": 1829,
    "\u2581Man": 1830,
    "ollow": 1831,
    "\u2581stumbling": 1832,
    "\u2581Almighty": 1833,
    "\u2581anxious": 1834,
    "\u2581bodies": 1835,
    "\u2581bridegroom": 1836,
    "\u2581damsel": 1837,
    "\u2581disobedient": 1838,
    "\u2581divers": 1839,
    "\u2581necessary": 1840,
    "\u2581obedience": 1841,
    "\u2581prosper": 1842,
    "\u2581screamed": 1843,
    "\u2581silence": 1844,
    "\u2581uncircumcision": 1845,
    "\u2581diligence": 1846,
    "\u2581iron": 1847,
    "\u2581trumpet": 1848,
    "\u2581harvest": 1849,
    "\u2581Stephen": 1850,
    "\u2581lips": 1851,
    "\u2581slain": 1852,
    "\u2581Haran": 1853,
    "\u2581honey": 1854,
    "\u2581rising": 1855,
    "\u2581Nancy": 1856,
    "\u2581acceptable": 1857,
    "\u2581spare": 1858,
    "\u2581boldness": 1859,
    "\u2581overlay": 1860,
    "\u2581temptation": 1861,
    "\u2581lodge": 1862,
    "\u2581steal": 1863,
    "\u2581worse": 1864,
    "\u2581Can": 1865,
    "\u2581hypocrites": 1866,
    "\u2581Sure": 1867,
    "\u2581ceased": 1868,
    "\u2581Sir": 1869,
    "\u2581removed": 1870,
    "\u2581defiled": 1871,
    "ite": 1872,
    "\u2581goslings": 1873,
    "\u2581henceforth": 1874,
    "\u2581shortly": 1875,
    "\u2581hell": 1876,
    "\u2581obtained": 1877,
    "THE": 1878,
    "wo": 1879,
    "\u2581onto": 1880,
    "\u2581stared": 1881,
    "\u2581sacrificed": 1882,
    "\u2581soft": 1883,
    "\u2581frogs": 1884,
    "\u2581Greeks": 1885,
    "\u2581widows": 1886,
    "\u2581pro": 1887,
    "\u2581Sen": 1888,
    "\u2581comes": 1889,
    "\u2581needed": 1890,
    "ors": 1891,
    "\u2581seeth": 1892,
    "\u2581prove": 1893,
    "\u2581sad": 1894,
    "\u2581rebuke": 1895,
    "\u2581holding": 1896,
    "\u2581ill": 1897,
    "ge": 1898,
    "rolled": 1899,
    "\u2581liked": 1900,
    "score": 1901,
    "\u2581fore": 1902,
    "\u2581occasion": 1903,
    "No": 1904,
    "\u2581happen": 1905,
    "\u2581lust": 1906,
    "\u2581burden": 1907,
    "\u2581add": 1908,
    "c": 1909,
    "\u2581revelation": 1910,
    "\u2581region": 1911,
    "\u2581supplication": 1912,
    "\u2581shepherd": 1913,
    "\u2581blanket": 1914,
    "\u2581Egyptian": 1915,
    "\u2581mark": 1916,
    "\u2581dog": 1917,
    "ris": 1918,
    "\u2581beside": 1919,
    "F": 1920,
    "\u2581salt": 1921,
    "\u2581laugh": 1922,
    "\u2581inhabit": 1923,
    "\u2581interest": 1924,
    "\u2581condemn": 1925,
    "\u2581betray": 1926,
    "\u2581pour": 1927,
    "\u2581heat": 1928,
    "\u2581defile": 1929,
    "ary": 1930,
    "\u2581je": 1931,
    "\u2581release": 1932,
    "\u2581despise": 1933,
    "\u2581taste": 1934,
    "\u2581store": 1935,
    "\u2581slow": 1936,
    "\u2581vine": 1937,
    "\u2581Sadducees": 1938,
    "\u2581America": 1939,
    "\u2581Lazarus": 1940,
    "\u2581Manasseh": 1941,
    "\u2581Sequoyah": 1942,
    "\u2581awoke": 1943,
    "\u2581confidence": 1944,
    "\u2581countenance": 1945,
    "\u2581doctrine": 1946,
    "\u2581dumb": 1947,
    "\u2581multiplied": 1948,
    "\u2581ointment": 1949,
    "\u2581recompense": 1950,
    "\u2581substance": 1951,
    "\u2581tarry": 1952,
    "\u2581Hagar": 1953,
    "\u2581crep": 1954,
    "\u2581digged": 1955,
    "\u2581contrary": 1956,
    "\u2581gander": 1957,
    "\u2581fellowship": 1958,
    "\u2581loins": 1959,
    "\u2581pretty": 1960,
    "\u2581Zion": 1961,
    "\u2581understood": 1962,
    "\u2581continually": 1963,
    "\u2581unrighteousness": 1964,
    "\u2581ungodly": 1965,
    "\u2581loss": 1966,
    "\u2581wickedness": 1967,
    "\u2581price": 1968,
    "\u2581trade": 1969,
    "\u2581exactly": 1970,
    "\u2581married": 1971,
    "\u2581heap": 1972,
    "\u2581rejected": 1973,
    "\u2581doorway": 1974,
    "\u2581stedfastly": 1975,
    "\u2581carefully": 1976,
    "\u2581fruitful": 1977,
    "\u2581shot": 1978,
    "\u2581stirred": 1979,
    "\u2581descended": 1980,
    "\u2581spit": 1981,
    "\u2581kindness": 1982,
    "\u2581hunger": 1983,
    "\u2581prevailed": 1984,
    "\u2581thick": 1985,
    "\u2581dying": 1986,
    "\u2581manure": 1987,
    "\u2581ring": 1988,
    "\u2581quietly": 1989,
    "\u2581loops": 1990,
    "\u2581bars": 1991,
    "\u2581town": 1992,
    "\u2581final": 1993,
    "\u2581pond": 1994,
    "\u2581divide": 1995,
    "xcept": 1996,
    "\u2581chariots": 1997,
    "\u2581rejoiced": 1998,
    "\u2581condemned": 1999,
    "\u2581cleanse": 2000,
    "\u2581powers": 2001,
    "\u2581promised": 2002,
    "\u2581consider": 2003,
    "ke": 2004,
    "time": 2005,
    "\u2581fasten": 2006,
    "\u2581desired": 2007,
    "ach": 2008,
    "\u2581m": 2009,
    "\u2581dreamed": 2010,
    "\u2581seasons": 2011,
    "\u2581Re": 2012,
    "\u2581Well": 2013,
    "\u2581lives": 2014,
    "unto": 2015,
    "ight": 2016,
    "\u2581mo": 2017,
    "\u2581ca": 2018,
    "\u2581parted": 2019,
    "\u2581praying": 2020,
    "\u2581intend": 2021,
    "\u2581west": 2022,
    "\u2581tr": 2023,
    "\u2581laying": 2024,
    "\u2581shed": 2025,
    "\u2581favor": 2026,
    "\u2581desir": 2027,
    "\u2581rivers": 2028,
    "\u2581hang": 2029,
    "\u2581custom": 2030,
    "\u2581case": 2031,
    "\u2581frog": 2032,
    "\u2581lamp": 2033,
    "\u2581trap": 2034,
    "\u2581prophesy": 2035,
    "what": 2036,
    "though": 2037,
    "\u2581fetch": 2038,
    "\u2581stretch": 2039,
    "\u2581Say": 2040,
    "that": 2041,
    "\u2581Rabbi": 2042,
    "\u2581endure": 2043,
    "\u2581owner": 2044,
    "\u2581complete": 2045,
    "ug": 2046,
    "\u2581hung": 2047,
    "\u2581proud": 2048,
    "\u2581commend": 2049,
    "\u2581eleven": 2050,
    "\u2581content": 2051,
    "\u2581branch": 2052,
    "sarea": 2053,
    "\u2581Babylon": 2054,
    "\u2581Capernaum": 2055,
    "\u2581English": 2056,
    "\u2581Nevertheless": 2057,
    "\u2581Remember": 2058,
    "\u2581Titus": 2059,
    "\u2581cousin": 2060,
    "\u2581enemy": 2061,
    "\u2581epistle": 2062,
    "\u2581fifteen": 2063,
    "\u2581ghost": 2064,
    "\u2581thief": 2065,
    "\u2581travail": 2066,
    "\u2581Festus": 2067,
    "\u2581calf": 2068,
    "\u2581Moreover": 2069,
    "\u2581broad": 2070,
    "\u2581compass": 2071,
    "\u2581excellent": 2072,
    "\u2581void": 2073,
    "\u2581stuff": 2074,
    "\u2581particular": 2075,
    "\u2581famous": 2076,
    "\u2581Edom": 2077,
    "\u2581bidden": 2078,
    "\u2581prophecy": 2079,
    "\u2581heavy": 2080,
    "\u2581family": 2081,
    "\u2581nay": 2082,
    "\u2581Which": 2083,
    "\u2581palm": 2084,
    "\u2581single": 2085,
    "\u2581ashes": 2086,
    "\u2581Abel": 2087,
    "\u2581jealousy": 2088,
    "\u2581husbandmen": 2089,
    "\u2581bind": 2090,
    "\u2581kindred": 2091,
    "\u2581Hello": 2092,
    "\u2581trial": 2093,
    "\u2581beforehand": 2094,
    "\u2581shaken": 2095,
    "bee": 2096,
    "\u2581cherubims": 2097,
    "\u2581determined": 2098,
    "\u2581wander": 2099,
    "\u2581driven": 2100,
    "\u2581Homer": 2101,
    "\u2581portion": 2102,
    "\u2581later": 2103,
    "\u2581required": 2104,
    "\u2581everywhere": 2105,
    "\u2581ball": 2106,
    "\u2581fit": 2107,
    "\u2581wrapp": 2108,
    "ier": 2109,
    "\u2581remaineth": 2110,
    "\u2581increased": 2111,
    "\u2581pitched": 2112,
    "\u2581hateth": 2113,
    "\u2581anybody": 2114,
    "\u2581hooks": 2115,
    "\u2581planted": 2116,
    "\u2581stool": 2117,
    "\u2581youngest": 2118,
    "\u2581hunting": 2119,
    "\u2581publicans": 2120,
    "\u2581withered": 2121,
    "b": 2122,
    "\u2581likeness": 2123,
    "\u2581stead": 2124,
    "\u2581betrayed": 2125,
    "\u2581en": 2126,
    "\u2581special": 2127,
    "\u2581does": 2128,
    "\u2581fugitives": 2129,
    "Many": 2130,
    "\u2581tall": 2131,
    "\u2581aside": 2132,
    "\u2581standeth": 2133,
    "\u2581findeth": 2134,
    "\u2581builded": 2135,
    "\u2581greatest": 2136,
    "\u2581numbered": 2137,
    "\u2581gotten": 2138,
    "\u2581hosts": 2139,
    "\u2581reading": 2140,
    "\u2581Zuckermans": 2141,
    "\u2581Hebrews": 2142,
    "\u2581waited": 2143,
    "\u2581sounded": 2144,
    "\u2581shoulders": 2145,
    "ought": 2146,
    "\u2581tribes": 2147,
    "\u2581meeting": 2148,
    "\u2581sleeping": 2149,
    "if": 2150,
    "ned": 2151,
    "stead": 2152,
    "\u2581masters": 2153,
    "all": 2154,
    "nder": 2155,
    "reached": 2156,
    "\u2581thousands": 2157,
    "\u2581Heth": 2158,
    "\u2581yours": 2159,
    "\u2581seal": 2160,
    "ened": 2161,
    "\u2581Du": 2162,
    "ic": 2163,
    "\u2581forget": 2164,
    "\u2581paper": 2165,
    "\u2581shadow": 2166,
    "\u2581animal": 2167,
    "\u2581vessel": 2168,
    "\u2581Pharisee": 2169,
    "\u2581band": 2170,
    "\u2581elder": 2171,
    "\u2581sack": 2172,
    "\u2581shekel": 2173,
    "\u2581bond": 2174,
    "\u2581color": 2175,
    "\u2581herb": 2176,
    "\u2581prisoner": 2177,
    "Do": 2178,
    "Can": 2179,
    "\u2581doubt": 2180,
    "\u2581swing": 2181,
    "\u2581proclaim": 2182,
    "\u2581reckon": 2183,
    "\u2581press": 2184,
    "\u2581suck": 2185,
    "\u2581weep": 2186,
    "\u2581deed": 2187,
    "\u2581restore": 2188,
    "\u2581observe": 2189,
    "\u2581memorial": 2190,
    "elah": 2191,
    "\u2581broke": 2192,
    "id": 2193,
    "ncle": 2194,
    "\u2581buttermilk": 2195,
    "\u2581Calhoun": 2196,
    "\u2581Ephraim": 2197,
    "\u2581Finally": 2198,
    "\u2581Gomorrah": 2199,
    "\u2581Goshen": 2200,
    "\u2581High": 2201,
    "\u2581Lichen": 2202,
    "\u2581Solomon": 2203,
    "\u2581asunder": 2204,
    "\u2581creation": 2205,
    "\u2581female": 2206,
    "\u2581longsuffering": 2207,
    "\u2581school": 2208,
    "\u2581slept": 2209,
    "\u2581twice": 2210,
    "\u2581idle": 2211,
    "\u2581spend": 2212,
    "\u2581hidden": 2213,
    "\u2581crieth": 2214,
    "\u2581oak": 2215,
    "\u2581alms": 2216,
    "\u2581destruction": 2217,
    "\u2581dried": 2218,
    "\u2581wroth": 2219,
    "\u2581forehead": 2220,
    "\u2581steward": 2221,
    "\u2581colt": 2222,
    "\u2581Dorian": 2223,
    "\u2581stole": 2224,
    "\u2581sang": 2225,
    "\u2581dump": 2226,
    "\u2581pasture": 2227,
    "\u2581scratch": 2228,
    "\u2581corruption": 2229,
    "\u2581lawyer": 2230,
    "\u2581size": 2231,
    "\u2581fun": 2232,
    "\u2581denied": 2233,
    "\u2581tender": 2234,
    "\u2581kine": 2235,
    "\u2581trespasses": 2236,
    "\u2581sow": 2237,
    "\u2581expect": 2238,
    "\u2581thanksgiving": 2239,
    "\u2581pitcher": 2240,
    "\u2581astonished": 2241,
    "\u2581discern": 2242,
    "\u2581ministration": 2243,
    "\u2581merciful": 2244,
    "\u2581dash": 2245,
    "\u2581cook": 2246,
    "\u2581worth": 2247,
    "\u2581deer": 2248,
    "\u2581error": 2249,
    "\u2581getting": 2250,
    "\u2581thirst": 2251,
    "\u2581mill": 2252,
    "\u2581whispered": 2253,
    "\u2581bath": 2254,
    "\u2581drawn": 2255,
    "\u2581persuaded": 2256,
    "\u2581dirty": 2257,
    "\u2581floor": 2258,
    "\u2581wonderful": 2259,
    "\u2581warned": 2260,
    "\u2581belly": 2261,
    "\u2581partakers": 2262,
    "\u2581separate": 2263,
    "\u2581Just": 2264,
    "\u2581attention": 2265,
    "\u2581highest": 2266,
    "\u2581Canaanites": 2267,
    "\u2581cows": 2268,
    "\u2581string": 2269,
    "\u2581sufferings": 2270,
    "\u2581bowl": 2271,
    "\u2581Don": 2272,
    "\u2581drunken": 2273,
    "\u2581...": 2274,
    "\u2581str": 2275,
    "\u2581dwelleth": 2276,
    "\u2581reported": 2277,
    "\u2581shekels": 2278,
    "\u2581West": 2279,
    "\u2581carrying": 2280,
    "\u2581burdens": 2281,
    "\u2581o": 2282,
    "\u2581hiding": 2283,
    "\u2581canst": 2284,
    "\u2581burning": 2285,
    "\u2581anointed": 2286,
    "\u2581rams": 2287,
    "be": 2288,
    "z": 2289,
    "ew": 2290,
    "\u2581heir": 2291,
    "\u2581fo": 2292,
    "reby": 2293,
    "ied": 2294,
    "\u2581dukes": 2295,
    "ine": 2296,
    "\u2581Andrew": 2297,
    "ad": 2298,
    "\u2581sing": 2299,
    "aw": 2300,
    "\u2581net": 2301,
    "\u2581rested": 2302,
    "\u2581La": 2303,
    "ably": 2304,
    "\u2581minded": 2305,
    "\u2581ex": 2306,
    "\u2581co": 2307,
    "\u2581claim": 2308,
    "O": 2309,
    "hi": 2310,
    "\u2581spra": 2311,
    "\u2581mov": 2312,
    "\u2581w": 2313,
    "ard": 2314,
    "\u2581Je": 2315,
    "wn": 2316,
    "minded": 2317,
    "\u2581cloth": 2318,
    "\u2581fillet": 2319,
    "\u2581person": 2320,
    "\u2581leg": 2321,
    "\u2581thread": 2322,
    "\u2581log": 2323,
    "\u2581hatchet": 2324,
    "ring": 2325,
    "\u2581sinner": 2326,
    "\u2581J": 2327,
    "\u2581soldier": 2328,
    "\u2581teacher": 2329,
    "\u2581chamber": 2330,
    "bye": 2331,
    "Look": 2332,
    "C": 2333,
    "Let": 2334,
    "which": 2335,
    "\u2581interpret": 2336,
    "And": 2337,
    "\u2581travel": 2338,
    "\u2581sojourn": 2339,
    "\u2581veil": 2340,
    "\u2581inter": 2341,
    "\u2581appoint": 2342,
    "te": 2343,
    "\u2581humble": 2344,
    "\u2581cease": 2345,
    "\u2581prepare": 2346,
    "\u2581nice": 2347,
    "\u2581pleasant": 2348,
    "um": 2349,
    "\u2581direct": 2350,
    "\u2581unrighteous": 2351,
    "erhaps": 2352,
    "\u2581equal": 2353,
    "\u2581fulfil": 2354,
    "\u2581suggest": 2355,
    "\u2581absent": 2356,
    "\u2581Agrippa": 2357,
    "\u2581Axe": 2358,
    "\u2581Baptist": 2359,
    "\u2581Featherstone": 2360,
    "\u2581Iscariot": 2361,
    "\u2581Lamech": 2362,
    "\u2581Martha": 2363,
    "\u2581Midian": 2364,
    "\u2581Wasseton": 2365,
    "\u2581Zebedee": 2366,
    "\u2581abiding": 2367,
    "\u2581crucify": 2368,
    "\u2581desolate": 2369,
    "\u2581exercise": 2370,
    "\u2581laurel": 2371,
    "\u2581leap": 2372,
    "\u2581savour": 2373,
    "\u2581smooth": 2374,
    "\u2581swine": 2375,
    "\u2581trembling": 2376,
    "\u2581Also": 2377,
    "\u2581Ephron": 2378,
    "\u2581atonement": 2379,
    "\u2581fulness": 2380,
    "\u2581merry": 2381,
    "\u2581lean": 2382,
    "\u2581dragon": 2383,
    "\u2581resist": 2384,
    "\u2581Sidon": 2385,
    "\u2581choice": 2386,
    "\u2581token": 2387,
    "\u2581defence": 2388,
    "\u2581Ross": 2389,
    "\u2581dinner": 2390,
    "\u2581trip": 2391,
    "\u2581Enoch": 2392,
    "\u2581Wayah": 2393,
    "\u2581chair": 2394,
    "\u2581uttermost": 2395,
    "\u2581Ham": 2396,
    "\u2581plow": 2397,
    "\u2581lake": 2398,
    "\u2581kid": 2399,
    "\u2581Master": 2400,
    "\u2581coast": 2401,
    "\u2581horsemen": 2402,
    "\u2581condemnation": 2403,
    "\u2581distance": 2404,
    "\u2581Hamor": 2405,
    "\u2581pluck": 2406,
    "\u2581plann": 2407,
    "\u2581yourself": 2408,
    "\u2581roof": 2409,
    "\u2581prize": 2410,
    "\u2581snare": 2411,
    "\u2581post": 2412,
    "\u2581radiant": 2413,
    "\u2581whereby": 2414,
    "\u2581shone": 2415,
    "\u2581sixty": 2416,
    "\u2581sober": 2417,
    "\u2581grown": 2418,
    "\u2581pile": 2419,
    "\u2581robbers": 2420,
    "\u2581murmured": 2421,
    "ixt": 2422,
    "\u2581consumed": 2423,
    "\u2581shouted": 2424,
    "\u2581Edith": 2425,
    "\u2581terrific": 2426,
    "man": 2427,
    "\u2581cleansed": 2428,
    "\u2581favoured": 2429,
    "\u2581failed": 2430,
    "\u2581refused": 2431,
    "\u2581Hav": 2432,
    "joined": 2433,
    "\u2581everybody": 2434,
    "\u2581St": 2435,
    "\u2581Rabbit": 2436,
    "\u2581wondered": 2437,
    "\u2581Ch": 2438,
    "\u2581pressed": 2439,
    "\u2581laughed": 2440,
    "\u2581Beer": 2441,
    "\u2581speaker": 2442,
    "\u2581plagues": 2443,
    "\u2581Per": 2444,
    "\u2581established": 2445,
    "\u2581party": 2446,
    "\u2581glass": 2447,
    "\u2581blankets": 2448,
    "old": 2449,
    "ive": 2450,
    "\u2581forest": 2451,
    "\u2581dozen": 2452,
    "not": 2453,
    "\u2581villages": 2454,
    "\u2581fingers": 2455,
    "\u2581hit": 2456,
    "\u2581shape": 2457,
    "\u2581walls": 2458,
    "\u2581Beth": 2459,
    "\u2581goest": 2460,
    "ns": 2461,
    "\u2581strive": 2462,
    "\u2581gr": 2463,
    "\u2581apples": 2464,
    "\u2581ha": 2465,
    "ain": 2466,
    "\u2581showing": 2467,
    "\u2581Dan": 2468,
    "ched": 2469,
    "\u2581wr": 2470,
    "\u2581husbands": 2471,
    "\u2581telling": 2472,
    "\u2581fact": 2473,
    "most": 2474,
    "em": 2475,
    "math": 2476,
    "\u2581vi": 2477,
    "ank": 2478,
    "\u2581bade": 2479,
    "\u2581Get": 2480,
    "ber": 2481,
    "\u2581worked": 2482,
    "\u2581tro": 2483,
    "\u2581wonder": 2484,
    "\u2581fields": 2485,
    "loved": 2486,
    "\u2581earthquake": 2487,
    "\u2581thigh": 2488,
    "\u2581minute": 2489,
    "\u2581window": 2490,
    "\u2581knop": 2491,
    "\u2581ordinance": 2492,
    "\u2581prince": 2493,
    "\u2581basket": 2494,
    "\u2581meal": 2495,
    "\u2581figure": 2496,
    "where": 2497,
    "ne": 2498,
    "\u2581corrupt": 2499,
    "Why": 2500,
    "un": 2501,
    "\u2581consent": 2502,
    "Don": 2503,
    "There": 2504,
    "\u2581accept": 2505,
    "\u2581pull": 2506,
    "seat": 2507,
    "\u2581healing": 2508,
    "\u2581increase": 2509,
    "\u2581awake": 2510,
    "\u2581earnest": 2511,
    "\u2581hunt": 2512,
    "\u2581suppose": 2513,
    "\u2581ride": 2514,
    "sheba": 2515,
    "\u2581fool": 2516,
    "\u2581Amalek": 2517,
    "\u2581Hivite": 2518,
    "\u2581Jethro": 2519,
    "\u2581Magdalene": 2520,
    "\u2581Mamre": 2521,
    "\u2581Peace": 2522,
    "\u2581Philadelphia": 2523,
    "\u2581Philistines": 2524,
    "\u2581Samaria": 2525,
    "\u2581Silas": 2526,
    "\u2581apparel": 2527,
    "\u2581bacon": 2528,
    "\u2581believing": 2529,
    "\u2581coupling": 2530,
    "\u2581dishonor": 2531,
    "\u2581fault": 2532,
    "\u2581fountain": 2533,
    "\u2581liberty": 2534,
    "\u2581lieutenant": 2535,
    "\u2581ministry": 2536,
    "\u2581plenty": 2537,
    "\u2581stomach": 2538,
    "\u2581strife": 2539,
    "\u2581taches": 2540,
    "\u2581thrice": 2541,
    "\u2581tribute": 2542,
    "\u2581underneath": 2543,
    "\u2581aught": 2544,
    "\u2581barren": 2545,
    "\u2581enjoy": 2546,
    "\u2581imitat": 2547,
    "\u2581Ananias": 2548,
    "\u2581bosom": 2549,
    "\u2581shirt": 2550,
    "\u2581firmament": 2551,
    "\u2581Bethany": 2552,
    "\u2581JE": 2553,
    "\u2581shining": 2554,
    "\u2581staff": 2555,
    "\u2581curious": 2556,
    "wels": 2557,
    "\u2581weather": 2558,
    "\u2581chicken": 2559,
    "\u2581Speak": 2560,
    "\u2581remission": 2561,
    "\u2581cool": 2562,
    "\u2581meekness": 2563,
    "\u2581fog": 2564,
    "\u2581George": 2565,
    "\u2581dropped": 2566,
    "\u2581Terah": 2567,
    "\u2581decomposers": 2568,
    "\u2581fighting": 2569,
    "\u2581bunch": 2570,
    "\u2581dew": 2571,
    "\u2581armies": 2572,
    "\u2581darkened": 2573,
    "\u2581shake": 2574,
    "\u2581span": 2575,
    "\u2581testified": 2576,
    "\u2581upper": 2577,
    "\u2581nakedness": 2578,
    "ueen": 2579,
    "\u2581motion": 2580,
    "\u2581exhortation": 2581,
    "\u2581approved": 2582,
    "\u2581seize": 2583,
    "\u2581moreover": 2584,
    "\u2581busy": 2585,
    "\u2581Henry": 2586,
    "\u2581boldly": 2587,
    "\u2581Perhaps": 2588,
    "\u2581flame": 2589,
    "\u2581endureth": 2590,
    "\u2581butler": 2591,
    "\u2581overcometh": 2592,
    "\u2581Pig": 2593,
    "\u2581agreed": 2594,
    "\u2581accomplished": 2595,
    "\u2581pushed": 2596,
    "\u2581spices": 2597,
    "\u2581someone": 2598,
    "Run": 2599,
    "\u2581separated": 2600,
    "\u2581pack": 2601,
    "\u2581listening": 2602,
    "\u2581anyone": 2603,
    "\u2581blow": 2604,
    "hick": 2605,
    "\u2581dragg": 2606,
    "owed": 2607,
    "\u2581escaped": 2608,
    "\u2581searched": 2609,
    "\u2581guide": 2610,
    "\u2581lieth": 2611,
    "\u2581supposed": 2612,
    "\u2581Though": 2613,
    "\u2581proclaimed": 2614,
    "\u2581Wom": 2615,
    "\u2581thunders": 2616,
    "\u2581brush": 2617,
    "\u2581tenth": 2618,
    "\u2581streets": 2619,
    "\u2581judgeth": 2620,
    "\u2581falleth": 2621,
    "\u2581shine": 2622,
    "\u2581teachers": 2623,
    "\u2581sacks": 2624,
    "\u2581deeds": 2625,
    "\u2581perished": 2626,
    "\u2581formed": 2627,
    "ure": 2628,
    "\u2581ru": 2629,
    "\u2581neighbors": 2630,
    "\u2581force": 2631,
    "\u2581hoped": 2632,
    "\u2581beam": 2633,
    "\u2581Ma": 2634,
    "ant": 2635,
    "\u2581simple": 2636,
    "\u2581sha": 2637,
    "thrown": 2638,
    "\u2581ministering": 2639,
    "\u2581bell": 2640,
    "land": 2641,
    "\u2581promises": 2642,
    "\u2581matters": 2643,
    "\u2581dwelling": 2644,
    "\u2581dreams": 2645,
    "\u2581sprinkl": 2646,
    "\u2581Pr": 2647,
    "\u2581Pa": 2648,
    "\u2581Me": 2649,
    "\u2581share": 2650,
    "\u2581kinds": 2651,
    "\u2581thrones": 2652,
    "\u2581Ga": 2653,
    "les": 2654,
    "u": 2655,
    "\u2581winds": 2656,
    "\u2581par": 2657,
    "\u2581Cap": 2658,
    "ra": 2659,
    "me": 2660,
    "\u2581rode": 2661,
    "led": 2662,
    "\u2581sakes": 2663,
    "ump": 2664,
    "\u2581Wil": 2665,
    "\u2581declar": 2666,
    "ot": 2667,
    "\u2581wave": 2668,
    "\u2581hat": 2669,
    "\u2581knee": 2670,
    "ments": 2671,
    "\u2581tin": 2672,
    "od": 2673,
    "\u2581hu": 2674,
    "ery": 2675,
    "dded": 2676,
    "\u2581drunk": 2677,
    "\u2581captive": 2678,
    "\u2581habitation": 2679,
    "\u2581game": 2680,
    "\u2581mourn": 2681,
    "\u2581effort": 2682,
    "\u2581nest": 2683,
    "\u2581virgin": 2684,
    "\u2581flower": 2685,
    "\u2581street": 2686,
    "\u2581plague": 2687,
    "ware": 2688,
    "\u2581drop": 2689,
    "\u2581search": 2690,
    "\u2581scribe": 2691,
    "\u2581girl": 2692,
    "\u2581youth": 2693,
    "\u2581path": 2694,
    "\u2581rubb": 2695,
    "pleasing": 2696,
    "\u2581marvel": 2697,
    "\u2581twist": 2698,
    "\u2581pot": 2699,
    "\u2581testify": 2700,
    "\u2581delight": 2701,
    "\u2581ninet": 2702,
    "\u2581due": 2703,
    "\u2581obtain": 2704,
    "special": 2705,
    "\u2581mad": 2706,
    "\u2581real": 2707,
    "\u2581den": 2708,
    "\u2581preserve": 2709,
    "\u2581bid": 2710,
    "\u2581consume": 2711,
    "\u2581bold": 2712,
    "\u2581entire": 2713,
    "Thi": 2714,
    "We": 2715,
    "laver": 2716,
    "eople": 2717,
    "\u2581trespass": 2718,
    "\u2581public": 2719,
    "\u2581danger": 2720,
    "\u2581agree": 2721,
    "\u2581tight": 2722,
    "\u2581Padan": 2723,
    "\u2581future": 2724,
    "\u2581Beaver": 2725,
    "\u2581Bethuel": 2726,
    "\u2581Charlie": 2727,
    "\u2581Japheth": 2728,
    "\u2581Joppa": 2729,
    "\u2581Joshua": 2730,
    "\u2581Zacharias": 2731,
    "\u2581altogether": 2732,
    "\u2581bundle": 2733,
    "\u2581diligently": 2734,
    "\u2581disobedience": 2735,
    "\u2581fifth": 2736,
    "\u2581furnace": 2737,
    "\u2581grieved": 2738,
    "\u2581group": 2739,
    "\u2581guile": 2740,
    "\u2581indignation": 2741,
    "\u2581iniquities": 2742,
    "\u2581kitchen": 2743,
    "\u2581leaf": 2744,
    "\u2581midnight": 2745,
    "\u2581nevertheless": 2746,
    "\u2581offended": 2747,
    "\u2581practise": 2748,
    "\u2581publish": 2749,
    "\u2581sanctification": 2750,
    "\u2581silk": 2751,
    "\u2581slops": 2752,
    "\u2581speckled": 2753,
    "\u2581stoop": 2754,
    "\u2581surname": 2755,
    "\u2581sweat": 2756,
    "\u2581venison": 2757,
    "\u2581violence": 2758,
    "\u2581Charleston": 2759,
    "\u2581abyss": 2760,
    "\u2581devout": 2761,
    "\u2581Apollos": 2762,
    "\u2581angry": 2763,
    "\u2581wove": 2764,
    "\u2581brimstone": 2765,
    "\u2581smitten": 2766,
    "\u2581slaves": 2767,
    "\u2581gracious": 2768,
    "\u2581Bilhah": 2769,
    "\u2581degree": 2770,
    "\u2581magicians": 2771,
    "\u2581below": 2772,
    "\u2581blew": 2773,
    "\u2581bride": 2774,
    "\u2581trick": 2775,
    "\u2581easier": 2776,
    "\u2581Everything": 2777,
    "\u2581wages": 2778,
    "\u2581lightning": 2779,
    "\u2581harm": 2780,
    "\u2581privily": 2781,
    "\u2581Seir": 2782,
    "\u2581mix": 2783,
    "\u2581unbelief": 2784,
    "\u2581issue": 2785,
    "\u2581mingled": 2786,
    "\u2581usual": 2787,
    "\u2581New": 2788,
    "\u2581choose": 2789,
    "\u2581sentence": 2790,
    "\u2581Hono": 2791,
    "\u2581Chapman": 2792,
    "\u2581upright": 2793,
    "\u2581Anah": 2794,
    "\u2581innocent": 2795,
    "\u2581roast": 2796,
    "\u2581assembly": 2797,
    "\u2581confession": 2798,
    "\u2581unbelieving": 2799,
    "\u2581print": 2800,
    "\u2581rear": 2801,
    "\u2581bondservant": 2802,
    "\u2581muskets": 2803,
    "\u2581crickets": 2804,
    "\u2581City": 2805,
    "\u2581foolishness": 2806,
    "\u2581honorable": 2807,
    "\u2581appeal": 2808,
    "\u2581somewhere": 2809,
    "\u2581Way": 2810,
    "\u2581bag": 2811,
    "\u2581sighed": 2812,
    "\u2581dart": 2813,
    "owbeit": 2814,
    "\u2581mention": 2815,
    "\u2581Seven": 2816,
    "\u2581earnestly": 2817,
    "\u2581boots": 2818,
    "\u2581locusts": 2819,
    "\u2581maybe": 2820,
    "\u2581dove": 2821,
    "\u2581persecuted": 2822,
    "\u2581hinder": 2823,
    "\u2581Sit": 2824,
    "\u2581afflicted": 2825,
    "\u2581listened": 2826,
    "\u2581mocked": 2827,
    "\u2581peril": 2828,
    "\u2581br": 2829,
    "\u2581entreated": 2830,
    "\u2581sand": 2831,
    "\u2581Fer": 2832,
    "\u2581changed": 2833,
    "\u2581hunters": 2834,
    "\u2581Doth": 2835,
    "\u2581interpreted": 2836,
    "\u2581pocket": 2837,
    "ttach": 2838,
    "\u2581valu": 2839,
    "\u2581breasts": 2840,
    "\u2581soli": 2841,
    "\u2581kindly": 2842,
    "\u2581beans": 2843,
    "\u2581miles": 2844,
    "\u2581suit": 2845,
    "\u2581leavened": 2846,
    "ix": 2847,
    "\u2581baskets": 2848,
    "\u2581kneel": 2849,
    "\u2581cloths": 2850,
    "\u2581prisoners": 2851,
    "\u2581bestow": 2852,
    "\u2581besides": 2853,
    "\u2581says": 2854,
    "\u2581beating": 2855,
    "\u2581mess": 2856,
    "\u2581lots": 2857,
    "\u2581exalt": 2858,
    "op": 2859,
    "\u2581coats": 2860,
    "\u2581Ho": 2861,
    "\u2581stoned": 2862,
    "\u2581salutation": 2863,
    "mah": 2864,
    "\u2581fearful": 2865,
    "\u2581parables": 2866,
    "\u2581lands": 2867,
    "\u2581ward": 2868,
    "\u2581tombs": 2869,
    "\u2581reasoning": 2870,
    "\u2581god": 2871,
    "\u2581sp": 2872,
    "fully": 2873,
    "\u2581aim": 2874,
    "ans": 2875,
    "\u2581clouds": 2876,
    "\u2581today": 2877,
    "ia": 2878,
    "ture": 2879,
    "ol": 2880,
    "\u2581haven": 2881,
    "na": 2882,
    "\u2581puff": 2883,
    "\u2581rebuk": 2884,
    "\u2581arrow": 2885,
    "godly": 2886,
    "\u2581stepp": 2887,
    "\u2581Repe": 2888,
    "formed": 2889,
    "\u2581avenge": 2890,
    "\u2581po": 2891,
    "\u2581withstand": 2892,
    "dal": 2893,
    "\u2581looks": 2894,
    "\u2581rattl": 2895,
    "\u2581step": 2896,
    "ern": 2897,
    "\u2581judgments": 2898,
    "\u2581inward": 2899,
    "\u2581Arables": 2900,
    "\u2581doors": 2901,
    "morrow": 2902,
    "ries": 2903,
    "\u2581ho": 2904,
    "\u2581bush": 2905,
    "\u2581hem": 2906,
    "ered": 2907,
    "\u2581Abi": 2908,
    "\u2581cove": 2909,
    "\u2581watered": 2910,
    "ent": 2911,
    "gged": 2912,
    "nother": 2913,
    "\u2581fail": 2914,
    "\u2581tradition": 2915,
    "\u2581Cas": 2916,
    "\u2581trunk": 2917,
    "\u2581climb": 2918,
    "kins": 2919,
    "\u2581fugitive": 2920,
    "\u2581chariot": 2921,
    "\u2581mile": 2922,
    "\u2581bras": 2923,
    "\u2581toil": 2924,
    "\u2581shoe": 2925,
    "K": 2926,
    "aram": 2927,
    "you": 2928,
    "Fern": 2929,
    "\u2581fold": 2930,
    "\u2581bone": 2931,
    "\u2581rail": 2932,
    "\u2581tear": 2933,
    "\u2581torment": 2934,
    "\u2581dress": 2935,
    "\u2581entreat": 2936,
    "down": 2937,
    "\u2581baptize": 2938,
    "rust": 2939,
    "some": 2940,
    "\u2581provoke": 2941,
    "doing": 2942,
    "\u2581becoming": 2943,
    "\u2581patient": 2944,
    "\u2581crow": 2945,
    "\u2581Maj": 2946,
    "\u2581murder": 2947,
    "aithful": 2948,
    "eathen": 2949,
    "\u2581vari": 2950,
    "\u2581advantage": 2951,
    "\u2581Barabbas": 2952,
    "\u2581Caiaphas": 2953,
    "\u2581Cephas": 2954,
    "\u2581Cilicia": 2955,
    "\u2581Naphtali": 2956,
    "\u2581Rejoice": 2957,
    "\u2581Return": 2958,
    "\u2581Stretch": 2959,
    "\u2581Zebulun": 2960,
    "\u2581abundance": 2961,
    "\u2581anguish": 2962,
    "\u2581attempt": 2963,
    "\u2581beauty": 2964,
    "\u2581capital": 2965,
    "\u2581cloak": 2966,
    "\u2581coffee": 2967,
    "\u2581courage": 2968,
    "\u2581dancing": 2969,
    "\u2581desperate": 2970,
    "\u2581example": 2971,
    "\u2581expedient": 2972,
    "\u2581experience": 2973,
    "\u2581necessity": 2974,
    "\u2581ninth": 2975,
    "\u2581nourish": 2976,
    "\u2581olive": 2977,
    "\u2581ouches": 2978,
    "\u2581perdition": 2979,
    "\u2581pledge": 2980,
    "\u2581renew": 2981,
    "\u2581stories": 2982,
    "\u2581supply": 2983,
    "\u2581terribl": 2984,
    "\u2581uncircumcised": 2985,
    "\u2581valley": 2986,
    "\u2581wolf": 2987,
    "\u2581almonds": 2988,
    "\u2581mitre": 2989,
    "\u2581stiff": 2990,
    "\u2581Bethlehem": 2991,
    "\u2581Dinah": 2992,
    "\u2581Scot": 2993,
    "\u2581blank": 2994,
    "\u2581easy": 2995,
    "\u2581narrow": 2996,
    "\u2581snake": 2997,
    "\u2581baby": 2998,
    "\u2581calm": 2999,
    "\u2581Mark": 3000,
    "\u2581dispute": 3001,
    "\u2581pattern": 3002,
    "\u2581redemption": 3003,
    "\u2581Rome": 3004,
    "\u2581Think": 3005,
    "\u2581abomination": 3006,
    "\u2581conversation": 3007,
    "\u2581yoke": 3008,
    "\u2581provide": 3009,
    "\u2581tunnel": 3010,
    "\u2581townhouse": 3011,
    "\u2581chance": 3012,
    "\u2581Gerar": 3013,
    "\u2581coals": 3014,
    "\u2581Great": 3015,
    "\u2581Adah": 3016,
    "\u2581division": 3017,
    "\u2581blameless": 3018,
    "\u2581disgust": 3019,
    "\u2581lump": 3020,
    "\u2581Tyre": 3021,
    "\u2581impossible": 3022,
    "\u2581zealous": 3023,
    "\u2581blasphemy": 3024,
    "\u2581covetousness": 3025,
    "\u2581miserable": 3026,
    "\u2581admonish": 3027,
    "\u2581signet": 3028,
    "\u2581Jake": 3029,
    "\u2581Eber": 3030,
    "\u2581torn": 3031,
    "ook": 3032,
    "\u2581sufficien": 3033,
    "\u2581spies": 3034,
    "\u2581partake": 3035,
    "\u2581profitable": 3036,
    "\u2581sorrowful": 3037,
    "\u2581dish": 3038,
    "\u2581dear": 3039,
    "\u2581privately": 3040,
    "\u2581kindled": 3041,
    "\u2581clay": 3042,
    "\u2581Lowan": 3043,
    "\u2581clerk": 3044,
    "\u2581skull": 3045,
    "\u2581shift": 3046,
    "\u2581fresh": 3047,
    "\u2581scourge": 3048,
    "\u2581Love": 3049,
    "\u2581vast": 3050,
    "\u2581weakness": 3051,
    "\u2581doesn": 3052,
    "\u2581cheek": 3053,
    "\u2581firstfruits": 3054,
    "\u2581uncleanness": 3055,
    "\u2581track": 3056,
    "\u2581ordained": 3057,
    "\u2581grabbed": 3058,
    "\u2581Day": 3059,
    "\u2581discover": 3060,
    "\u2581anyway": 3061,
    "\u2581wasn": 3062,
    "\u2581hopeless": 3063,
    "\u2581hay": 3064,
    "\u2581entirely": 3065,
    "\u2581selves": 3066,
    "\u2581fist": 3067,
    "\u2581health": 3068,
    "\u2581descending": 3069,
    "\u2581farther": 3070,
    "\u2581waved": 3071,
    "\u2581Soon": 3072,
    "\u2581stripes": 3073,
    "light": 3074,
    "\u2581contain": 3075,
    "\u2581clearly": 3076,
    "\u2581smaller": 3077,
    "up": 3078,
    "line": 3079,
    "\u2581yelled": 3080,
    "\u2581endured": 3081,
    "\u2581disappeared": 3082,
    "\u2581pearls": 3083,
    "\u2581ridges": 3084,
    "\u2581diseases": 3085,
    "ul": 3086,
    "\u2581pins": 3087,
    "\u2581limbs": 3088,
    "\u2581babes": 3089,
    "\u2581porch": 3090,
    "\u2581music": 3091,
    "\u2581corrupted": 3092,
    "\u2581openly": 3093,
    "\u2581bugs": 3094,
    "mote": 3095,
    "\u2581dressed": 3096,
    "\u2581wagons": 3097,
    "\u2581transgressions": 3098,
    "\u2581clothing": 3099,
    "\u2581shade": 3100,
    "\u2581proved": 3101,
    "\u2581wit": 3102,
    "\u2581quarter": 3103,
    "\u2581freely": 3104,
    "\u2581teacheth": 3105,
    "\u2581sowed": 3106,
    "\u2581island": 3107,
    "\u2581poke": 3108,
    "\u2581drops": 3109,
    "\u2581pigs": 3110,
    "\u2581ordinances": 3111,
    "\u2581princes": 3112,
    "pa": 3113,
    "ab": 3114,
    "\u2581ra": 3115,
    "\u2581barely": 3116,
    "ping": 3117,
    "lee": 3118,
    "\u2581obeyed": 3119,
    "\u2581judgest": 3120,
    "\u2581nets": 3121,
    "ites": 3122,
    "\u2581shepherds": 3123,
    "\u2581towns": 3124,
    "\u2581preacher": 3125,
    "\u2581beholding": 3126,
    "ctually": 3127,
    "\u2581weeks": 3128,
    "\u2581hills": 3129,
    "\u2581sawest": 3130,
    "\u2581Seth": 3131,
    "\u2581seeme": 3132,
    "\u2581handle": 3133,
    "\u2581acknowledge": 3134,
    "\u2581Write": 3135,
    "\u2581opening": 3136,
    "\u2581songs": 3137,
    "\u2581perfected": 3138,
    "\u2581rods": 3139,
    "ions": 3140,
    "ee": 3141,
    "iel": 3142,
    "\u2581lights": 3143,
    "\u2581ti": 3144,
    "\u2581lover": 3145,
    "aved": 3146,
    "liness": 3147,
    "\u2581strike": 3148,
    "cy": 3149,
    "\u2581Ar": 3150,
    "tuck": 3151,
    "\u2581sisters": 3152,
    "\u2581principal": 3153,
    "\u2581Les": 3154,
    "\u2581Al": 3155,
    "ree": 3156,
    "hu": 3157,
    "\u2581Z": 3158,
    "\u2581dra": 3159,
    "\u2581Whe": 3160,
    "pe": 3161,
    "ush": 3162,
    "ft": 3163,
    "mer": 3164,
    "\u2581thereby": 3165,
    "\u2581ended": 3166,
    "\u2581settl": 3167,
    "\u2581saidst": 3168,
    "ated": 3169,
    "\u2581admir": 3170,
    "\u2581camest": 3171,
    "\u2581liken": 3172,
    "dden": 3173,
    "\u2581bus": 3174,
    "\u2581wa": 3175,
    "\u2581du": 3176,
    "ver": 3177,
    "way": 3178,
    "ice": 3179,
    "\u2581distress": 3180,
    "\u2581butter": 3181,
    "ings": 3182,
    "\u2581hearted": 3183,
    "\u2581Am": 3184,
    "\u2581plan": 3185,
    "ade": 3186,
    "rash": 3187,
    "ash": 3188,
    "\u2581Ja": 3189,
    "ipped": 3190,
    "ut": 3191,
    "\u2581Wa": 3192,
    "\u2581Er": 3193,
    "il": 3194,
    "W": 3195,
    "house": 3196,
    "over": 3197,
    "\u2581bullock": 3198,
    "\u2581platter": 3199,
    "\u2581plant": 3200,
    "\u2581tale": 3201,
    "\u2581bank": 3202,
    "\u2581blade": 3203,
    "\u2581mock": 3204,
    "\u2581dance": 3205,
    "\u2581listen": 3206,
    "\u2581thunder": 3207,
    "\u2581clothe": 3208,
    "\u2581talent": 3209,
    "\u2581breast": 3210,
    "\u2581weigh": 3211,
    "\u2581envy": 3212,
    "Just": 3213,
    "stool": 3214,
    "\u2581forbear": 3215,
    "deep": 3216,
    "Where": 3217,
    "but": 3218,
    "So": 3219,
    "Go": 3220,
    "\u2581suppos": 3221,
    "My": 3222,
    "\u2581afflict": 3223,
    "\u2581disappear": 3224,
    "\u2581favour": 3225,
    "\u2581hatch": 3226,
    "\u2581jump": 3227,
    "\u2581finish": 3228,
    "\u2581harp": 3229,
    "same": 3230,
    "\u2581persecute": 3231,
    "\u2581harden": 3232,
    "\u2581plot": 3233,
    "\u2581pea": 3234,
    "\u2581silent": 3235,
    "\u2581quick": 3236,
    "pon": 3237,
    "\u2581adulter": 3238,
    "\u2581careful": 3239,
    "\u2581fade": 3240,
    "\u2581potato": 3241,
    "\u2581engrav": 3242,
    "\u2581forsake": 3243,
    "\u2581birth": 3244,
    "\u2581speed": 3245,
    "\u2581Galil": 3246,
    "\u2581affection": 3247,
    "\u2581Achaia": 3248,
    "\u2581Aholibamah": 3249,
    "\u2581Arphaxad": 3250,
    "\u2581Beelzebub": 3251,
    "\u2581Children": 3252,
    "\u2581Cornelius": 3253,
    "\u2581Cyprus": 3254,
    "\u2581Cyren": 3255,
    "\u2581Eliphaz": 3256,
    "\u2581Elisabeth": 3257,
    "\u2581Felix": 3258,
    "\u2581Fussy": 3259,
    "\u2581Galatia": 3260,
    "\u2581Grounds": 3261,
    "\u2581Hezron": 3262,
    "\u2581Lieutenant": 3263,
    "\u2581Melchizedek": 3264,
    "\u2581Milcah": 3265,
    "\u2581Zilpah": 3266,
    "\u2581Zoar": 3267,
    "\u2581accompan": 3268,
    "\u2581adversaries": 3269,
    "\u2581carnal": 3270,
    "\u2581enormous": 3271,
    "\u2581frozen": 3272,
    "\u2581furniture": 3273,
    "\u2581grandchildren": 3274,
    "\u2581grapes": 3275,
    "\u2581honour": 3276,
    "\u2581infirmity": 3277,
    "\u2581mediator": 3278,
    "\u2581midwives": 3279,
    "\u2581mischief": 3280,
    "\u2581obedient": 3281,
    "\u2581opportunity": 3282,
    "\u2581outdoors": 3283,
    "\u2581refuge": 3284,
    "\u2581ringstraked": 3285,
    "\u2581runners": 3286,
    "\u2581steep": 3287,
    "\u2581storm": 3288,
    "\u2581strove": 3289,
    "\u2581woke": 3290,
    "\u2581wolves": 3291,
    "\u2581clever": 3292,
    "\u2581slaughter": 3293,
    "\u2581Olives": 3294,
    "\u2581aloud": 3295,
    "\u2581beckon": 3296,
    "\u2581gnash": 3297,
    "\u2581occupied": 3298,
    "\u2581pertain": 3299,
    "\u2581adversary": 3300,
    "\u2581myrrh": 3301,
    "\u2581Korah": 3302,
    "\u2581consecrate": 3303,
    "\u2581regular": 3304,
    "\u2581important": 3305,
    "\u2581doctor": 3306,
    "\u2581stockade": 3307,
    "\u2581punishment": 3308,
    "\u2581sinneth": 3309,
    "\u2581Enos": 3310,
    "\u2581birthright": 3311,
    "\u2581holiness": 3312,
    "\u2581stedfast": 3313,
    "\u2581offspring": 3314,
    "\u2581frame": 3315,
    "\u2581Hades": 3316,
    "\u2581train": 3317,
    "\u2581mercies": 3318,
    "\u2581freedom": 3319,
    "\u2581litter": 3320,
    "\u2581comment": 3321,
    "\u2581reins": 3322,
    "\u2581grate": 3323,
    "\u2581check": 3324,
    "\u2581Bash": 3325,
    "\u2581flight": 3326,
    "\u2581imagination": 3327,
    "\u2581useful": 3328,
    "\u2581lame": 3329,
    "\u2581Asher": 3330,
    "\u2581rejecteth": 3331,
    "\u2581hundredfold": 3332,
    "\u2581err": 3333,
    "\u2581human": 3334,
    "\u2581sense": 3335,
    "\u2581perplexed": 3336,
    "\u2581evermore": 3337,
    "\u2581books": 3338,
    "\u2581fever": 3339,
    "\u2581Him": 3340,
    "\u2581spear": 3341,
    "\u2581swarm": 3342,
    "\u2581Bar": 3343,
    "\u2581southward": 3344,
    "\u2581chest": 3345,
    "\u2581Cainan": 3346,
    "\u2581eastward": 3347,
    "\u2581adorn": 3348,
    "\u2581bake": 3349,
    "\u2581throat": 3350,
    "\u2581onyx": 3351,
    "\u2581lend": 3352,
    "zale": 3353,
    "\u2581fourscore": 3354,
    "\u2581recent": 3355,
    "\u2581gladness": 3356,
    "\u2581frost": 3357,
    "\u2581menservants": 3358,
    "\u2581sickle": 3359,
    "\u2581view": 3360,
    "\u2581box": 3361,
    "\u2581pursued": 3362,
    "\u2581march": 3363,
    "\u2581Watch": 3364,
    "\u2581shineth": 3365,
    "\u2581ham": 3366,
    "\u2581managed": 3367,
    "\u2581ascended": 3368,
    "\u2581deceived": 3369,
    "\u2581refreshed": 3370,
    "\u2581passage": 3371,
    "\u2581tithes": 3372,
    "\u2581soweth": 3373,
    "ked": 3374,
    "\u2581Hast": 3375,
    "\u2581loaded": 3376,
    "\u2581strengthened": 3377,
    "der": 3378,
    "\u2581Gad": 3379,
    "\u2581axe": 3380,
    "\u2581convict": 3381,
    "\u2581manna": 3382,
    "tial": 3383,
    "\u2581scared": 3384,
    "\u2581restored": 3385,
    "skins": 3386,
    "\u2581realize": 3387,
    "\u2581observed": 3388,
    "\u2581gladly": 3389,
    "\u2581pe": 3390,
    "\u2581tasted": 3391,
    "\u2581climbing": 3392,
    "\u2581Amorites": 3393,
    "\u2581Only": 3394,
    "\u2581higher": 3395,
    "\u2581wondering": 3396,
    "ue": 3397,
    "\u2581weary": 3398,
    "\u2581answereth": 3399,
    "\u2581hanged": 3400,
    "\u2581mid": 3401,
    "\u2581rust": 3402,
    "\u2581plans": 3403,
    "\u2581sealed": 3404,
    "\u2581incorruptible": 3405,
    "\u2581beware": 3406,
    "\u2581Hai": 3407,
    "\u2581trunks": 3408,
    "\u2581therewith": 3409,
    "\u2581steps": 3410,
    "\u2581noon": 3411,
    "\u2581redeemed": 3412,
    "\u2581baker": 3413,
    "\u2581doves": 3414,
    "\u2581learning": 3415,
    "\u2581fainted": 3416,
    "\u2581upward": 3417,
    "\u2581shadows": 3418,
    "\u2581tempt": 3419,
    "\u2581herbs": 3420,
    "\u2581feeding": 3421,
    "immed": 3422,
    "\u2581dogs": 3423,
    "tion": 3424,
    "\u2581castle": 3425,
    "\u2581accus": 3426,
    "\u2581meant": 3427,
    "L": 3428,
    "ack": 3429,
    "\u2581wouldn": 3430,
    "\u2581attend": 3431,
    "\u2581suffering": 3432,
    "\u2581possessions": 3433,
    "stroke": 3434,
    "\u2581sixt": 3435,
    "\u2581reed": 3436,
    "\u2581spot": 3437,
    "\u2581candlesticks": 3438,
    "\u2581pitch": 3439,
    "do": 3440,
    "\u2581captains": 3441,
    "\u2581temper": 3442,
    "\u2581imagine": 3443,
    "\u2581lovely": 3444,
    "\u2581seats": 3445,
    "more": 3446,
    "\u2581blot": 3447,
    "\u2581Roman": 3448,
    "ins": 3449,
    "go": 3450,
    "\u2581killing": 3451,
    "\u2581keeper": 3452,
    "\u2581wars": 3453,
    "om": 3454,
    "\u2581Will": 3455,
    "\u2581boats": 3456,
    "\u2581sounds": 3457,
    "ith": 3458,
    "lock": 3459,
    "\u2581courts": 3460,
    "\u2581cow": 3461,
    "\u2581Ad": 3462,
    "\u2581El": 3463,
    "she": 3464,
    "os": 3465,
    "\u2581tents": 3466,
    "ified": 3467,
    "\u2581herd": 3468,
    "\u2581De": 3469,
    "nd": 3470,
    "ship": 3471,
    "\u2581fan": 3472,
    "ni": 3473,
    "\u2581base": 3474,
    "\u2581dippe": 3475,
    "\u2581Bo": 3476,
    "\u2581worm": 3477,
    "\u2581comest": 3478,
    "dge": 3479,
    "\u2581pai": 3480,
    "N": 3481,
    "\u2581prov": 3482,
    "\u2581sa": 3483,
    "ble": 3484,
    "\u2581yell": 3485,
    "\u2581va": 3486,
    "ster": 3487,
    "br": 3488,
    "don": 3489,
    "\u2581n": 3490,
    "\u2581fro": 3491,
    "pers": 3492,
    "\u2581gun": 3493,
    "\u2581com": 3494,
    "ane": 3495,
    "ally": 3496,
    "\u2581befall": 3497,
    "ay": 3498,
    "test": 3499,
    "\u2581pre": 3500,
    "head": 3501,
    "\u2581Yes": 3502,
    "set": 3503,
    "ough": 3504,
    "servant": 3505,
    "lk": 3506,
    "pped": 3507,
    "\u2581hours": 3508,
    "\u2581cha": 3509,
    "\u2581scrap": 3510,
    "\u2581Sa": 3511,
    "\u2581balloon": 3512,
    "\u2581webs": 3513,
    "\u2581scatter": 3514,
    "\u2581whoso": 3515,
    "\u2581labour": 3516,
    "ations": 3517,
    "fold": 3518,
    "\u2581sepulchre": 3519,
    "\u2581brick": 3520,
    "\u2581lion": 3521,
    "\u2581statute": 3522,
    "\u2581provision": 3523,
    "\u2581liar": 3524,
    "\u2581persecution": 3525,
    "\u2581messenger": 3526,
    "\u2581maidservant": 3527,
    "\u2581murderer": 3528,
    "\u2581wound": 3529,
    "\u2581wagon": 3530,
    "\u2581transgression": 3531,
    "sh": 3532,
    "\u2581idol": 3533,
    "ced": 3534,
    "\u2581publican": 3535,
    "\u2581Canaanite": 3536,
    "H": 3537,
    "control": 3538,
    "Please": 3539,
    "ists": 3540,
    "\u2581stir": 3541,
    "\u2581receiv": 3542,
    "May": 3543,
    "\u2581pound": 3544,
    "\u2581officer": 3545,
    "chamber": 3546,
    "\u2581gnaw": 3547,
    "\u2581tabernacles": 3548,
    "Some": 3549,
    "Come": 3550,
    "Templeton": 3551,
    "li": 3552,
    "\u2581boil": 3553,
    "She": 3554,
    "\u2581attain": 3555,
    "\u2581confirm": 3556,
    "\u2581oppress": 3557,
    "\u2581bark": 3558,
    "icken": 3559,
    "\u2581reveal": 3560,
    "\u2581eviden": 3561,
    "All": 3562,
    "\u2581Y": 3563,
    "\u2581fin": 3564,
    "\u2581deceive": 3565,
    "\u2581sc": 3566,
    "\u2581peri": 3567,
    "\u2581mud": 3568,
    "\u2581gird": 3569,
    "\u2581inquire": 3570,
    "\u2581require": 3571,
    "rough": 3572,
    "bor": 3573,
    "\u2581remove": 3574,
    "\u2581fierce": 3575,
    "\u2581assured": 3576,
    "\u2581glorious": 3577,
    "\u2581lone": 3578,
    "uffer": 3579,
    "\u2581knock": 3580,
    "\u2581Syria": 3581,
    "gers": 3582,
    "\u2581gentle": 3583,
    "\u2581sect": 3584,
    "urthermore": 3585,
    "\u2581correct": 3586,
    "stitute": 3587,
    "\u2581abst": 3588,
    "\u2581effect": 3589,
    "\u2581wool": 3590,
    "torium": 3591,
    "\u2581Alexander": 3592,
    "\u2581Aquila": 3593,
    "\u2581Believe": 3594,
    "\u2581Creek": 3595,
    "\u2581Eleazar": 3596,
    "\u2581Hebron": 3597,
    "\u2581Iconium": 3598,
    "\u2581Issachar": 3599,
    "\u2581Jericho": 3600,
    "\u2581KING": 3601,
    "\u2581Laodicea": 3602,
    "\u2581Lystra": 3603,
    "\u2581Machpelah": 3604,
    "\u2581Mahalaleel": 3605,
    "\u2581Methuselah": 3606,
    "\u2581Nazarene": 3607,
    "\u2581Peleg": 3608,
    "\u2581Sunday": 3609,
    "\u2581Troas": 3610,
    "\u2581Zibeon": 3611,
    "\u2581audience": 3612,
    "\u2581autumn": 3613,
    "\u2581baptizing": 3614,
    "\u2581blemish": 3615,
    "\u2581bracelets": 3616,
    "\u2581breeze": 3617,
    "\u2581ceiling": 3618,
    "\u2581cleave": 3619,
    "\u2581conditions": 3620,
    "\u2581desolation": 3621,
    "\u2581eldest": 3622,
    "\u2581enmity": 3623,
    "\u2581ensample": 3624,
    "\u2581execute": 3625,
    "\u2581extra": 3626,
    "\u2581foreordained": 3627,
    "\u2581foreskin": 3628,
    "\u2581ignorance": 3629,
    "\u2581jasper": 3630,
    "\u2581majesty": 3631,
    "\u2581merchandise": 3632,
    "\u2581mirror": 3633,
    "\u2581muscle": 3634,
    "\u2581newspaper": 3635,
    "\u2581opinion": 3636,
    "\u2581plenteous": 3637,
    "\u2581rejoicing": 3638,
    "\u2581relief": 3639,
    "\u2581represent": 3640,
    "\u2581reprobate": 3641,
    "\u2581reserved": 3642,
    "\u2581rotten": 3643,
    "\u2581serving": 3644,
    "\u2581studie": 3645,
    "\u2581taskmasters": 3646,
    "\u2581tetrarch": 3647,
    "\u2581tobacco": 3648,
    "\u2581treasury": 3649,
    "\u2581unprofitable": 3650,
    "\u2581Army": 3651,
    "\u2581Reu": 3652,
    "\u2581Word": 3653,
    "\u2581downhill": 3654,
    "\u2581overshadow": 3655,
    "\u2581paused": 3656,
    "\u2581queer": 3657,
    "\u2581roar": 3658,
    "\u2581savor": 3659,
    "\u2581shield": 3660,
    "\u2581magic": 3661,
    "\u2581Eden": 3662,
    "\u2581existence": 3663,
    "\u2581spell": 3664,
    "\u2581Alph": 3665,
    "\u2581scorch": 3666,
    "\u2581soap": 3667,
    "\u2581success": 3668,
    "\u2581excellenc": 3669,
    "\u2581needlework": 3670,
    "\u2581stink": 3671,
    "\u2581limit": 3672,
    "\u2581grind": 3673,
    "\u2581estate": 3674,
    "\u2581magnified": 3675,
    "\u2581Jesse": 3676,
    "\u2581triumph": 3677,
    "\u2581foursquare": 3678,
    "\u2581Tamar": 3679,
    "\u2581vinegar": 3680,
    "\u2581quail": 3681,
    "\u2581brave": 3682,
    "\u2581displease": 3683,
    "\u2581unfruitful": 3684,
    "\u2581aforetime": 3685,
    "\u2581Government": 3686,
    "\u2581situation": 3687,
    "\u2581folk": 3688,
    "\u2581serious": 3689,
    "\u2581squatted": 3690,
    "\u2581Salah": 3691,
    "\u2581fame": 3692,
    "\u2581doughnut": 3693,
    "\u2581herdmen": 3694,
    "\u2581encamp": 3695,
    "\u2581government": 3696,
    "\u2581message": 3697,
    "\u2581omer": 3698,
    "\u2581Jared": 3699,
    "\u2581object": 3700,
    "\u2581readiness": 3701,
    "\u2581Reuel": 3702,
    "\u2581Rain": 3703,
    "\u2581hypocrisy": 3704,
    "\u2581tenons": 3705,
    "\u2581center": 3706,
    "\u2581Moon": 3707,
    "\u2581melt": 3708,
    "\u2581barnyard": 3709,
    "\u2581dangerous": 3710,
    "\u2581dy": 3711,
    "\u2581proof": 3712,
    "\u2581depth": 3713,
    "\u2581match": 3714,
    "\u2581Rise": 3715,
    "\u2581saving": 3716,
    "\u2581Shelah": 3717,
    "\u2581Syrian": 3718,
    "\u2581Old": 3719,
    "\u2581squash": 3720,
    "\u2581range": 3721,
    "\u2581recover": 3722,
    "\u2581thrash": 3723,
    "\u2581study": 3724,
    "\u2581Without": 3725,
    "\u2581spotted": 3726,
    "\u2581mass": 3727,
    "\u2581laden": 3728,
    "\u2581convert": 3729,
    "\u2581whiskers": 3730,
    "\u2581prophesied": 3731,
    "\u2581purchased": 3732,
    "\u2581justice": 3733,
    "ext": 3734,
    "\u2581surety": 3735,
    "\u2581lonely": 3736,
    "\u2581eighth": 3737,
    "\u2581repeated": 3738,
    "\u2581sniffed": 3739,
    "\u2581vexed": 3740,
    "\u2581prof": 3741,
    "\u2581reproved": 3742,
    "\u2581edifying": 3743,
    "workers": 3744,
    "\u2581pair": 3745,
    "\u2581ripe": 3746,
    "\u2581sickness": 3747,
    "\u2581sum": 3748,
    "\u2581nurse": 3749,
    "\u2581sinful": 3750,
    "\u2581sway": 3751,
    "\u2581Hur": 3752,
    "\u2581fixed": 3753,
    "cut": 3754,
    "ael": 3755,
    "\u2581circle": 3756,
    "\u2581couch": 3757,
    "\u2581inquired": 3758,
    "muel": 3759,
    "\u2581setting": 3760,
    "\u2581blaspheme": 3761,
    "\u2581instructed": 3762,
    "\u2581collected": 3763,
    "\u2581covet": 3764,
    "\u2581exten": 3765,
    "\u2581nodded": 3766,
    "\u2581softly": 3767,
    "\u2581groaning": 3768,
    "\u2581evident": 3769,
    "\u2581backward": 3770,
    "\u2581Other": 3771,
    "\u2581plainly": 3772,
    "\u2581riding": 3773,
    "\u2581somebody": 3774,
    "\u2581wounded": 3775,
    "\u2581despised": 3776,
    "\u2581released": 3777,
    "\u2581lace": 3778,
    "\u2581marvell": 3779,
    "\u2581pervert": 3780,
    "\u2581Cret": 3781,
    "\u2581murmurings": 3782,
    "\u2581distressed": 3783,
    "\u2581forbidd": 3784,
    "\u2581distan": 3785,
    "\u2581cursed": 3786,
    "\u2581searching": 3787,
    "\u2581testifying": 3788,
    "\u2581hogs": 3789,
    "\u2581marketplaces": 3790,
    "\u2581Samaritans": 3791,
    "\u2581questionings": 3792,
    "\u2581accepted": 3793,
    "\u2581May": 3794,
    "\u2581openeth": 3795,
    "\u2581intent": 3796,
    "\u2581hairy": 3797,
    "\u2581laws": 3798,
    "\u2581sojourned": 3799,
    "\u2581ju": 3800,
    "\u2581pounds": 3801,
    "\u2581maidservants": 3802,
    "\u2581ours": 3803,
    "\u2581housetop": 3804,
    "\u2581plants": 3805,
    "robably": 3806,
    "\u2581begged": 3807,
    "\u2581workers": 3808,
    "uffle": 3809,
    "\u2581coves": 3810,
    "\u2581exhorted": 3811,
    "mit": 3812,
    "\u2581paths": 3813,
    "\u2581virgins": 3814,
    "\u2581waves": 3815,
    "\u2581uttered": 3816,
    "\u2581labored": 3817,
    "\u2581speakest": 3818,
    "\u2581knops": 3819,
    "Not": 3820,
    "\u2581shapes": 3821,
    "\u2581clearing": 3822,
    "\u2581Good": 3823,
    "\u2581hundreds": 3824,
    "\u2581entertain": 3825,
    "\u2581burying": 3826,
    "\u2581Mo": 3827,
    "\u2581beach": 3828,
    "\u2581bands": 3829,
    "\u2581pots": 3830,
    "ech": 3831,
    "\u2581Eli": 3832,
    "\u2581appearing": 3833,
    "\u2581Mi": 3834,
    "\u2581drinketh": 3835,
    "\u2581supplications": 3836,
    "\u2581occasions": 3837,
    "\u2581Sometime": 3838,
    "\u2581Co": 3839,
    "gging": 3840,
    "\u2581di": 3841,
    "\u2581rac": 3842,
    "\u2581serpents": 3843,
    "\u2581Ou": 3844,
    "ide": 3845,
    "\u2581En": 3846,
    "\u2581roots": 3847,
    "\u2581fasting": 3848,
    "\u2581holes": 3849,
    "\u2581constrain": 3850,
    "iness": 3851,
    "\u2581creeks": 3852,
    "nce": 3853,
    "\u2581Pi": 3854,
    "\u2581char": 3855,
    "\u2581bother": 3856,
    "\u2581sayings": 3857,
    "\u2581smelling": 3858,
    "\u2581dreaming": 3859,
    "\u2581seest": 3860,
    "\u2581examin": 3861,
    "\u2581helping": 3862,
    "\u2581Ne": 3863,
    "\u2581pop": 3864,
    "\u2581Sin": 3865,
    "\u2581process": 3866,
    "\u2581gra": 3867,
    "ha": 3868,
    "\u2581sta": 3869,
    "\u2581tangle": 3870,
    "uch": 3871,
    "how": 3872,
    "by": 3873,
    "longeth": 3874,
    "ig": 3875,
    "trusted": 3876,
    "\u2581nuts": 3877,
    "\u2581hairs": 3878,
    "v": 3879,
    "lushed": 3880,
    "Is": 3881,
    "tur": 3882,
    "\u2581Con": 3883,
    "\u2581signifie": 3884,
    "lic": 3885,
    "pic": 3886,
    "\u2581member": 3887,
    "ious": 3888,
    "\u2581spi": 3889,
    "pensation": 3890,
    "\u2581Ari": 3891,
    "son": 3892,
    "\u2581Jo": 3893,
    "\u2581Le": 3894,
    "\u2581mere": 3895,
    "\u2581win": 3896,
    "\u2581cur": 3897,
    "tic": 3898,
    "treated": 3899,
    "\u2581sub": 3900,
    "da": 3901,
    "\u2581welcome": 3902,
    "are": 3903,
    "\u2581treasures": 3904,
    "ign": 3905,
    "\u2581im": 3906,
    "\u2581bas": 3907,
    "\u2581ease": 3908,
    "ancy": 3909,
    "\u2581sprinkle": 3910,
    "\u2581throw": 3911,
    "\u2581pie": 3912,
    "lah": 3913,
    "sive": 3914,
    "\u2581dodg": 3915,
    "ale": 3916,
    "\u2581fain": 3917,
    "\u2581lords": 3918,
    "\u2581cutt": 3919,
    "cession": 3920,
    "io": 3921,
    "\u2581imagin": 3922,
    "\u2581simpl": 3923,
    "bal": 3924,
    "llen": 3925,
    "\u2581examine": 3926,
    "\u2581longing": 3927,
    "\u2581shave": 3928,
    "\u2581cor": 3929,
    "shed": 3930,
    "\u2581heave": 3931,
    "\u2581Sheba": 3932,
    "nas": 3933,
    "pping": 3934,
    "pots": 3935,
    "\u2581Gree": 3936,
    "\u2581min": 3937,
    "tained": 3938,
    "\u2581cap": 3939,
    "\u2581flu": 3940,
    "own": 3941,
    "right": 3942,
    "ving": 3943,
    "\u2581Sha": 3944,
    "long": 3945,
    "ged": 3946,
    "\u2581Ju": 3947,
    "\u2581Ten": 3948,
    "like": 3949,
    "M": 3950,
    "cept": 3951,
    "hold": 3952,
    "\u2581ga": 3953,
    "\u2581rid": 3954,
    "held": 3955,
    "ccord": 3956,
    "\u2581tumult": 3957,
    "\u2581trans": 3958,
    "\u2581eunuch": 3959,
    "\u2581shilling": 3960,
    "\u2581chestnut": 3961,
    "corruptible": 3962,
    "\u2581sheet": 3963,
    "\u2581plate": 3964,
    "\u2581Samaritan": 3965,
    "\u2581marketplace": 3966,
    "\u2581Amorite": 3967,
    "\u2581babe": 3968,
    "worker": 3969,
    "\u2581hunter": 3970,
    "\u2581push": 3971,
    "wear": 3972,
    "\u2581hog": 3973,
    "\u2581limb": 3974,
    "\u2581Na": 3975,
    "\u2581instruction": 3976,
    "Will": 3977,
    "color": 3978,
    "When": 3979,
    "Wilbur": 3980,
    "\u2581includ": 3981,
    "midst": 3982,
    "\u2581pin": 3983,
    "\u2581accomplish": 3984,
    "Of": 3985,
    "\u2581prevail": 3986,
    "\u2581Late": 3987,
    "\u2581hind": 3988,
    "\u2581charg": 3989,
    "\u2581handful": 3990,
    "yard": 3991,
    "\u2581dim": 3992,
    "\u2581K": 3993,
    "\u2581decide": 3994,
    "\u2581conceive": 3995,
    "\u2581circumcise": 3996,
    "lace": 3997,
    "ursed": 3998,
    "\u2581lunch": 3999,
    "\u2581mouths": 4000,
    "\u2581confident": 4001,
    "\u2581fervent": 4002,
    "\u2581brief": 4003,
    "\u2581shout": 4004,
    "\u2581deceitful": 4005,
    "\u2581difficult": 4006,
    "uddenly": 4007,
    "\u2581warn": 4008,
    "\u2581overthrow": 4009,
    "\u2581rend": 4010,
    "\u2581purse": 4011,
    "\u2581zeal": 4012,
    "\u2581confus": 4013,
    "\u2581deceit": 4014,
    "\u2581cruel": 4015,
    "\u2581pant": 4016,
    "\u2581Corinth": 4017,
    "\u2581Bethsaida": 4018,
    "\u2581Boudinot": 4019,
    "\u2581Chedorlaomer": 4020,
    "\u2581Chief": 4021,
    "\u2581Deliver": 4022,
    "\u2581Friend": 4023,
    "\u2581Nadab": 4024,
    "\u2581Pamphylia": 4025,
    "\u2581Philippi": 4026,
    "\u2581Serug": 4027,
    "\u2581Tarsus": 4028,
    "\u2581Thomas": 4029,
    "\u2581Tychicus": 4030,
    "\u2581YHWH": 4031,
    "\u2581abolish": 4032,
    "\u2581accurately": 4033,
    "\u2581affrighted": 4034,
    "\u2581amazement": 4035,
    "\u2581anathema": 4036,
    "\u2581attitude": 4037,
    "\u2581beguile": 4038,
    "\u2581betrothed": 4039,
    "\u2581borrow": 4040,
    "\u2581bridle": 4041,
    "\u2581carriage": 4042,
    "\u2581cheese": 4043,
    "\u2581consecration": 4044,
    "\u2581cornmeal": 4045,
    "\u2581cotton": 4046,
    "\u2581dissolved": 4047,
    "\u2581furlongs": 4048,
    "\u2581grandmother": 4049,
    "\u2581grandstand": 4050,
    "\u2581grief": 4051,
    "\u2581grinned": 4052,
    "\u2581heretofore": 4053,
    "\u2581hospitality": 4054,
    "\u2581hurry": 4055,
    "\u2581infirmities": 4056,
    "\u2581insurrection": 4057,
    "\u2581leather": 4058,
    "\u2581magazine": 4059,
    "\u2581mandrakes": 4060,
    "\u2581muttered": 4061,
    "\u2581nutrients": 4062,
    "\u2581organisms": 4063,
    "\u2581perfume": 4064,
    "\u2581powder": 4065,
    "\u2581racket": 4066,
    "\u2581regret": 4067,
    "\u2581religion": 4068,
    "\u2581spinnerets": 4069,
    "\u2581strict": 4070,
    "\u2581stunned": 4071,
    "\u2581swelling": 4072,
    "\u2581task": 4073,
    "\u2581terrified": 4074,
    "\u2581thieves": 4075,
    "\u2581thoroughly": 4076,
    "\u2581ungodliness": 4077,
    "\u2581upstairs": 4078,
    "\u2581vanity": 4079,
    "\u2581vengeance": 4080,
    "\u2581whisky": 4081,
    "\u2581avoid": 4082,
    "\u2581cream": 4083,
    "\u2581deaf": 4084,
    "\u2581decision": 4085,
    "\u2581excess": 4086,
    "\u2581flavor": 4087,
    "\u2581indoors": 4088,
    "\u2581kinsmen": 4089,
    "\u2581lascivious": 4090,
    "\u2581orchard": 4091,
    "\u2581progress": 4092,
    "\u2581sweep": 4093,
    "\u2581thumb": 4094,
    "\u2581worried": 4095,
    "\u2581Diana": 4096,
    "\u2581Nathanael": 4097,
    "\u2581burst": 4098,
    "\u2581neglect": 4099,
    "\u2581polish": 4100,
    "\u2581secur": 4101,
    "closing": 4102,
    "\u2581Hosanna": 4103,
    "\u2581alien": 4104,
    "\u2581rumor": 4105,
    "\u2581slumber": 4106,
    "\u2581sneak": 4107,
    "\u2581Like": 4108,
    "\u2581gravity": 4109,
    "\u2581Aholi": 4110,
    "\u2581crumbs": 4111,
    "\u2581difference": 4112,
    "\u2581citizenship": 4113,
    "\u2581snout": 4114,
    "Sleep": 4115,
    "\u2581choke": 4116,
    "\u2581heavily": 4117,
    "\u2581continuing": 4118,
    "\u2581fables": 4119,
    "Humble": 4120,
    "\u2581Deep": 4121,
    "\u2581delay": 4122,
    "\u2581tag": 4123,
    "\u2581overtake": 4124,
    "\u2581bald": 4125,
    "\u2581odor": 4126,
    "diment": 4127,
    "\u2581Gaius": 4128,
    "\u2581Zerah": 4129,
    "\u2581Jason": 4130,
    "\u2581bowels": 4131,
    "\u2581Heaven": 4132,
    "\u2581Depart": 4133,
    "\u2581support": 4134,
    "\u2581babies": 4135,
    "\u2581straitened": 4136,
    "\u2581consolation": 4137,
    "\u2581bucket": 4138,
    "\u2581riverboat": 4139,
    "\u2581seventeen": 4140,
    "\u2581Tru": 4141,
    "\u2581graft": 4142,
    "\u2581bleed": 4143,
    "\u2581urgent": 4144,
    "\u2581uncertain": 4145,
    "\u2581brook": 4146,
    "\u2581stewardship": 4147,
    "\u2581sincerity": 4148,
    "\u2581dig": 4149,
    "\u2581gentlemen": 4150,
    "\u2581dollar": 4151,
    "\u2581buck": 4152,
    "\u2581property": 4153,
    "\u2581wallet": 4154,
    "\u2581partner": 4155,
    "\u2581crook": 4156,
    "\u2581assign": 4157,
    "\u2581accusation": 4158,
    "\u2581otherwise": 4159,
    "\u2581Herodias": 4160,
    "\u2581provender": 4161,
    "\u2581scales": 4162,
    "\u2581confusion": 4163,
    "\u2581stem": 4164,
    "\u2581victory": 4165,
    "\u2581attack": 4166,
    "\u2581tower": 4167,
    "\u2581envie": 4168,
    "\u2581assay": 4169,
    "\u2581hys": 4170,
    "\u2581landscape": 4171,
    "\u2581liquor": 4172,
    "\u2581wot": 4173,
    "\u2581duty": 4174,
    "\u2581chew": 4175,
    "\u2581lice": 4176,
    "\u2581shamefully": 4177,
    "\u2581carton": 4178,
    "\u2581split": 4179,
    "Bee": 4180,
    "\u2581dung": 4181,
    "\u2581shortened": 4182,
    "\u2581utterance": 4183,
    "\u2581distinction": 4184,
    "\u2581friendship": 4185,
    "\u2581expectation": 4186,
    "\u2581raw": 4187,
    "\u2581behave": 4188,
    "\u2581motionless": 4189,
    "\u2581square": 4190,
    "\u2581offence": 4191,
    "\u2581appearance": 4192,
    "\u2581potatoes": 4193,
    "\u2581firm": 4194,
    "\u2581westward": 4195,
    "\u2581filthy": 4196,
    "\u2581dizzy": 4197,
    "\u2581memory": 4198,
    "\u2581pepper": 4199,
    "\u2581spilled": 4200,
    "\u2581peach": 4201,
    "\u2581tossed": 4202,
    "\u2581potter": 4203,
    "neck": 4204,
    "\u2581argument": 4205,
    "\u2581Save": 4206,
    "\u2581cris": 4207,
    "\u2581election": 4208,
    "\u2581punished": 4209,
    "\u2581frightened": 4210,
    "\u2581booth": 4211,
    "\u2581ladies": 4212,
    "agement": 4213,
    "\u2581Jonah": 4214,
    "\u2581Keep": 4215,
    "\u2581boast": 4216,
    "\u2581wake": 4217,
    "\u2581priesthood": 4218,
    "\u2581glanc": 4219,
    "\u2581squirrels": 4220,
    "\u2581relieved": 4221,
    "\u2581Onan": 4222,
    "\u2581Sam": 4223,
    "tual": 4224,
    "\u2581chuckled": 4225,
    "\u2581explained": 4226,
    "\u2581trembled": 4227,
    "\u2581Over": 4228,
    "\u2581comfortable": 4229,
    "\u2581gainsaying": 4230,
    "\u2581graven": 4231,
    "\u2581slight": 4232,
    "R": 4233,
    "\u2581stage": 4234,
    "\u2581pine": 4235,
    "\u2581moth": 4236,
    "lapped": 4237,
    "\u2581pretend": 4238,
    "\u2581noble": 4239,
    "\u2581chastening": 4240,
    "\u2581scar": 4241,
    "\u2581upside": 4242,
    "ross": 4243,
    "\u2581however": 4244,
    "\u2581weave": 4245,
    "\u2581Fall": 4246,
    "\u2581damp": 4247,
    "\u2581whispering": 4248,
    "\u2581tares": 4249,
    "\u2581warriors": 4250,
    "\u2581idolaters": 4251,
    "\u2581swo": 4252,
    "\u2581blasphemed": 4253,
    "servants": 4254,
    "\u2581entr": 4255,
    "\u2581stern": 4256,
    "\u2581liver": 4257,
    "\u2581closer": 4258,
    "\u2581laborers": 4259,
    "\u2581Anna": 4260,
    "\u2581ax": 4261,
    "\u2581severally": 4262,
    "\u2581position": 4263,
    "\u2581key": 4264,
    "\u2581Nothing": 4265,
    "\u2581humbled": 4266,
    "\u2581assembled": 4267,
    "\u2581ma": 4268,
    "\u2581Jebusites": 4269,
    "\u2581fornicators": 4270,
    "\u2581shelters": 4271,
    "\u2581Perizzites": 4272,
    "\u2581grievously": 4273,
    "\u2581news": 4274,
    "\u2581throwing": 4275,
    "\u2581forthwith": 4276,
    "\u2581chase": 4277,
    "\u2581girded": 4278,
    "\u2581bug": 4279,
    "\u2581barking": 4280,
    "\u2581flatter": 4281,
    "\u2581sir": 4282,
    "\u2581spinn": 4283,
    "\u2581stack": 4284,
    "\u2581passions": 4285,
    "\u2581lid": 4286,
    "\u2581scattering": 4287,
    "\u2581fi": 4288,
    "\u2581thereunto": 4289,
    "\u2581seethe": 4290,
    "\u2581droppings": 4291,
    "\u2581joints": 4292,
    "\u2581sparrows": 4293,
    "\u2581personal": 4294,
    "\u2581tormented": 4295,
    "\u2581perisheth": 4296,
    "\u2581mocking": 4297,
    "\u2581failing": 4298,
    "bed": 4299,
    "\u2581closely": 4300,
    "\u2581delighted": 4301,
    "\u2581starv": 4302,
    "\u2581fatherless": 4303,
    "\u2581deck": 4304,
    "Thank": 4305,
    "\u2581eunuchs": 4306,
    "\u2581shillings": 4307,
    "\u2581chestnuts": 4308,
    "\u2581plates": 4309,
    "\u2581thinkest": 4310,
    "som": 4311,
    "\u2581stopp": 4312,
    "\u2581treated": 4313,
    "\u2581veiled": 4314,
    "\u2581questioning": 4315,
    "\u2581invisible": 4316,
    "\u2581messengers": 4317,
    "\u2581Whom": 4318,
    "ature": 4319,
    "arley": 4320,
    "\u2581singing": 4321,
    "\u2581firstling": 4322,
    "\u2581wont": 4323,
    "ole": 4324,
    "\u2581considered": 4325,
    "\u2581inhabited": 4326,
    "sop": 4327,
    "\u2581mist": 4328,
    "ton": 4329,
    "\u2581manif": 4330,
    "\u2581interesting": 4331,
    "\u2581prophesying": 4332,
    "iest": 4333,
    "\u2581serveth": 4334,
    "\u2581ahead": 4335,
    "\u2581needeth": 4336,
    "\u2581exhorting": 4337,
    "II": 4338,
    "\u2581efforts": 4339,
    "vile": 4340,
    "\u2581cart": 4341,
    "\u2581proceeded": 4342,
    "\u2581older": 4343,
    "\u2581minutes": 4344,
    "\u2581filling": 4345,
    "\u2581windows": 4346,
    "ards": 4347,
    "\u2581believest": 4348,
    "\u2581fashioned": 4349,
    "\u2581dec": 4350,
    "\u2581ja": 4351,
    "\u2581fle": 4352,
    "\u2581hatchets": 4353,
    "\u2581breathing": 4354,
    "his": 4355,
    "\u2581heirs": 4356,
    "\u2581awful": 4357,
    "\u2581seals": 4358,
    "ible": 4359,
    "alam": 4360,
    "side": 4361,
    "\u2581tooth": 4362,
    "\u2581divine": 4363,
    "\u2581forever": 4364,
    "mp": 4365,
    "\u2581fowls": 4366,
    "\u2581miracles": 4367,
    "\u2581males": 4368,
    "\u2581pri": 4369,
    "revious": 4370,
    "\u2581sco": 4371,
    "\u2581wheels": 4372,
    "\u2581afterwards": 4373,
    "\u2581questions": 4374,
    "\u2581remind": 4375,
    "\u2581Se": 4376,
    "\u2581cane": 4377,
    "\u2581pleasures": 4378,
    "\u2581helper": 4379,
    "nath": 4380,
    "co": 4381,
    "ff": 4382,
    "\u2581tails": 4383,
    "\u2581Cana": 4384,
    "bah": 4385,
    "dom": 4386,
    "\u2581helped": 4387,
    "\u2581accuser": 4388,
    "\u2581pa": 4389,
    "ran": 4390,
    "\u2581Bu": 4391,
    "uth": 4392,
    "hin": 4393,
    "\u2581images": 4394,
    "\u2581ash": 4395,
    "row": 4396,
    "\u2581scorn": 4397,
    "\u2581doll": 4398,
    "ded": 4399,
    "gy": 4400,
    "urge": 4401,
    "\u2581orders": 4402,
    "\u2581shell": 4403,
    "eph": 4404,
    "\u2581points": 4405,
    "ise": 4406,
    "\u2581peaceful": 4407,
    "ears": 4408,
    "\u2581trac": 4409,
    "ias": 4410,
    "\u2581sy": 4411,
    "\u2581su": 4412,
    "\u2581intreat": 4413,
    "\u2581lur": 4414,
    "ast": 4415,
    "\u2581tip": 4416,
    "ork": 4417,
    "tal": 4418,
    "\u2581decompose": 4419,
    "\u2581bl": 4420,
    "aph": 4421,
    "\u2581helps": 4422,
    "\u2581ver": 4423,
    "\u2581puffe": 4424,
    "\u2581empt": 4425,
    "\u2581runt": 4426,
    "ating": 4427,
    "rushed": 4428,
    "\u2581steppe": 4429,
    "por": 4430,
    "\u2581commune": 4431,
    "\u2581decompos": 4432,
    "\u2581bees": 4433,
    "nched": 4434,
    "\u2581mar": 4435,
    "ify": 4436,
    "ull": 4437,
    "cked": 4438,
    "\u2581layer": 4439,
    "als": 4440,
    "\u2581tu": 4441,
    "\u2581tool": 4442,
    "phe": 4443,
    "ile": 4444,
    "\u2581Si": 4445,
    "\u2581Ti": 4446,
    "\u2581bar": 4447,
    "\u2581Whit": 4448,
    "rim": 4449,
    "pture": 4450,
    "\u2581val": 4451,
    "angled": 4452,
    "\u2581mol": 4453,
    "\u2581qua": 4454,
    "erah": 4455,
    "\u2581kn": 4456,
    "pen": 4457,
    "iv": 4458,
    "rous": 4459,
    "\u2581dip": 4460,
    "\u2581Wi": 4461,
    "\u2581distribute": 4462,
    "\u2581doer": 4463,
    "com": 4464,
    "\u2581Ah": 4465,
    "\u2581settle": 4466,
    "dull": 4467,
    "\u2581Di": 4468,
    "\u2581camel": 4469,
    "ere": 4470,
    "\u2581whit": 4471,
    "bout": 4472,
    "\u2581rag": 4473,
    "\u2581Ca": 4474,
    "ians": 4475,
    "\u2581injur": 4476,
    "lations": 4477,
    "\u2581overthr": 4478,
    "rated": 4479,
    "eak": 4480,
    "unt": 4481,
    "board": 4482,
    "ung": 4483,
    "onsider": 4484,
    "eez": 4485,
    "\u2581cake": 4486,
    "uck": 4487,
    "\u2581using": 4488,
    "\u2581Bela": 4489,
    "ower": 4490,
    "\u2581Mu": 4491,
    "round": 4492,
    "work": 4493,
    "\u2581prefer": 4494,
    "\u2581vow": 4495,
    "\u2581skill": 4496,
    "\u2581Set": 4497,
    "visible": 4498,
    "antic": 4499,
    "ttention": 4500,
    "\u2581candle": 4501,
    "\u2581invent": 4502,
    "cerning": 4503,
    "\u2581exp": 4504,
    "\u2581groan": 4505,
    "\u2581nail": 4506,
    "\u2581rank": 4507,
    "\u2581debtor": 4508,
    "\u2581pomegranate": 4509,
    "\u2581weapon": 4510,
    "ined": 4511,
    "\u2581murmur": 4512,
    "ngel": 4513,
    "\u2581sparrow": 4514,
    "\u2581dropping": 4515,
    "\u2581deceiver": 4516,
    "\u2581disease": 4517,
    "stone": 4518,
    "\u2581perver": 4519,
    "\u2581descend": 4520,
    "\u2581gosling": 4521,
    "took": 4522,
    "\u2581loop": 4523,
    "\u2581pearl": 4524,
    "\u2581cla": 4525,
    "aged": 4526,
    "\u2581partaker": 4527,
    "\u2581chain": 4528,
    "course": 4529,
    "tled": 4530,
    "\u2581prais": 4531,
    "Stop": 4532,
    "Nothing": 4533,
    "\u2581judg": 4534,
    "Edith": 4535,
    "terrific": 4536,
    "\u2581despair": 4537,
    "D": 4538,
    "bow": 4539,
    "front": 4540,
    "Who": 4541,
    "worthy": 4542,
    "gave": 4543,
    "Did": 4544,
    "\u2581waste": 4545,
    "\u2581purify": 4546,
    "master": 4547,
    "fell": 4548,
    "face": 4549,
    "For": 4550,
    "\u2581load": 4551,
    "thirst": 4552,
    "\u2581jo": 4553,
    "\u2581instruct": 4554,
    "\u2581threaten": 4555,
    "\u2581collect": 4556,
    "\u2581ridge": 4557,
    "foot": 4558,
    "\u2581Kno": 4559,
    "\u2581murmuring": 4560,
    "nets": 4561,
    "Then": 4562,
    "ouched": 4563,
    "\u2581strengthen": 4564,
    "\u2581preten": 4565,
    "rent": 4566,
    "key": 4567,
    "\u2581excite": 4568,
    "\u2581arrange": 4569,
    "\u2581tremble": 4570,
    "\u2581surprise": 4571,
    "\u2581reprove": 4572,
    "\u2581approve": 4573,
    "\u2581swa": 4574,
    "\u2581dr": 4575,
    "ps": 4576,
    "\u2581general": 4577,
    "ounded": 4578,
    "\u2581clan": 4579,
    "\u2581vague": 4580,
    "\u2581Ke": 4581,
    "\u2581exact": 4582,
    "\u2581abundant": 4583,
    "\u2581immediate": 4584,
    "\u2581bruise": 4585,
    "\u2581supplie": 4586,
    "\u2581greas": 4587,
    "\u2581map": 4588,
    "\u2581cheerful": 4589,
    "\u2581glorie": 4590,
    "\u2581sur": 4591,
    "hood": 4592,
    "They": 4593,
    "\u2581bon": 4594,
    "\u2581ski": 4595,
    "\u2581safe": 4596,
    "weed": 4597,
    "spect": 4598,
    "\u2581railing": 4599,
    "\u2581transgress": 4600,
    "belief": 4601,
    "they": 4602,
    "\u2581debt": 4603,
    "\u2581riot": 4604,
    "\u2581express": 4605,
    "\u2581cherub": 4606,
    "\u2581proper": 4607,
    "\u2581flour": 4608,
    "\u2581yo": 4609,
    "\u2581strait": 4610,
    "nswere": 4611,
    "bby": 4612,
    "\u2581glutton": 4613,
    "\u2581horizon": 4614,
    "\u2581occur": 4615,
    "Listen": 4616,
    "Terrific": 4617,
    "latchet": 4618,
    "tarsus": 4619,
    "\u2581Amminadab": 4620,
    "\u2581Aristarchus": 4621,
    "\u2581Comforter": 4622,
    "\u2581Congress": 4623,
    "\u2581Cranshaw": 4624,
    "\u2581Derbe": 4625,
    "\u2581Dishon": 4626,
    "\u2581Ephrath": 4627,
    "\u2581Euphrates": 4628,
    "\u2581GOD": 4629,
    "\u2581Havilah": 4630,
    "\u2581Hearken": 4631,
    "\u2581Hogsucker": 4632,
    "\u2581Ishmeelites": 4633,
    "\u2581Kohath": 4634,
    "\u2581Nicodemus": 4635,
    "\u2581PIG": 4636,
    "\u2581Receive": 4637,
    "\u2581Servant": 4638,
    "\u2581Succoth": 4639,
    "\u2581Would": 4640,
    "\u2581Zohar": 4641,
    "\u2581absence": 4642,
    "\u2581adoption": 4643,
    "\u2581afford": 4644,
    "\u2581assurance": 4645,
    "\u2581blowgun": 4646,
    "\u2581bounty": 4647,
    "\u2581cabbage": 4648,
    "\u2581century": 4649,
    "\u2581chapiters": 4650,
    "\u2581cinnamon": 4651,
    "\u2581concubine": 4652,
    "\u2581convenient": 4653,
    "\u2581correspond": 4654,
    "\u2581demanded": 4655,
    "\u2581devise": 4656,
    "\u2581emerald": 4657,
    "\u2581engine": 4658,
    "\u2581foxes": 4659,
    "\u2581greeting": 4660,
    "\u2581handkerchief": 4661,
    "\u2581haught": 4662,
    "\u2581hereafter": 4663,
    "\u2581impart": 4664,
    "\u2581incorruption": 4665,
    "\u2581insects": 4666,
    "\u2581level": 4667,
    "\u2581mysterious": 4668,
    "\u2581necessities": 4669,
    "\u2581nostrils": 4670,
    "\u2581obeisance": 4671,
    "\u2581perform": 4672,
    "\u2581picture": 4673,
    "\u2581pilgrims": 4674,
    "\u2581president": 4675,
    "\u2581proconsul": 4676,
    "\u2581pronounce": 4677,
    "\u2581propitiation": 4678,
    "\u2581province": 4679,
    "\u2581raspberr": 4680,
    "\u2581request": 4681,
    "\u2581response": 4682,
    "\u2581restitution": 4683,
    "\u2581restrained": 4684,
    "\u2581reviling": 4685,
    "\u2581revived": 4686,
    "\u2581riverbank": 4687,
    "\u2581sapphire": 4688,
    "\u2581sardius": 4689,
    "\u2581showbread": 4690,
    "\u2581shrank": 4691,
    "\u2581smiled": 4692,
    "\u2581solemn": 4693,
    "\u2581straddle": 4694,
    "\u2581survive": 4695,
    "\u2581swift": 4696,
    "\u2581sworn": 4697,
    "\u2581terror": 4698,
    "\u2581twig": 4699,
    "\u2581unimagin": 4700,
    "\u2581unloose": 4701,
    "\u2581unmarried": 4702,
    "\u2581unusual": 4703,
    "\u2581whiskey": 4704,
    "\u2581Brother": 4705,
    "\u2581diminish": 4706,
    "\u2581disappoint": 4707,
    "\u2581element": 4708,
    "\u2581emerge": 4709,
    "\u2581latter": 4710,
    "\u2581orange": 4711,
    "\u2581queen": 4712,
    "\u2581raven": 4713,
    "\u2581roam": 4714,
    "\u2581scrivener": 4715,
    "\u2581Gilead": 4716,
    "\u2581Ithamar": 4717,
    "\u2581Likewise": 4718,
    "\u2581discreet": 4719,
    "\u2581fraction": 4720,
    "\u2581impress": 4721,
    "\u2581knuckle": 4722,
    "\u2581leprosy": 4723,
    "\u2581mammon": 4724,
    "\u2581merchant": 4725,
    "\u2581mule": 4726,
    "\u2581mysteries": 4727,
    "\u2581reproof": 4728,
    "\u2581giant": 4729,
    "\u2581clipping": 4730,
    "\u2581middling": 4731,
    "\u2581Potiph": 4732,
    "\u2581circum": 4733,
    "\u2581crystal": 4734,
    "\u2581bereaved": 4735,
    "\u2581bondwoman": 4736,
    "\u2581exchange": 4737,
    "\u2581holler": 4738,
    "\u2581instru": 4739,
    "\u2581noodle": 4740,
    "\u2581adulteress": 4741,
    "\u2581beggar": 4742,
    "\u2581kicked": 4743,
    "\u2581title": 4744,
    "\u2581buryingplace": 4745,
    "\u2581refrain": 4746,
    "\u2581Christmas": 4747,
    "\u2581turban": 4748,
    "\u2581Salmon": 4749,
    "\u2581liberality": 4750,
    "\u2581enchantments": 4751,
    "\u2581workmanship": 4752,
    "\u2581occupation": 4753,
    "\u2581sackcloth": 4754,
    "\u2581bodily": 4755,
    "\u2581flash": 4756,
    "\u2581gorge": 4757,
    "\u2581snapp": 4758,
    "\u2581Preparation": 4759,
    "\u2581Count": 4760,
    "\u2581stumblingblock": 4761,
    "\u2581Joses": 4762,
    "\u2581arrival": 4763,
    "\u2581blasphemies": 4764,
    "\u2581blossoms": 4765,
    "\u2581freewoman": 4766,
    "\u2581fungus": 4767,
    "access": 4768,
    "\u2581Buddy": 4769,
    "\u2581covetous": 4770,
    "\u2581Abb": 4771,
    "\u2581palsied": 4772,
    "\u2581Walk": 4773,
    "\u2581nap": 4774,
    "\u2581winepress": 4775,
    "\u2581digging": 4776,
    "\u2581decree": 4777,
    "\u2581Moab": 4778,
    "\u2581paddle": 4779,
    "\u2581foggy": 4780,
    "\u2581job": 4781,
    "\u2581reverence": 4782,
    "\u2581Drink": 4783,
    "\u2581Italy": 4784,
    "\u2581confe": 4785,
    "\u2581Goodbye": 4786,
    "\u2581Little": 4787,
    "\u2581principalities": 4788,
    "\u2581thicket": 4789,
    "\u2581tonight": 4790,
    "kay": 4791,
    "\u2581cursing": 4792,
    "\u2581gently": 4793,
    "\u2581Shur": 4794,
    "\u2581permit": 4795,
    "nquire": 4796,
    "\u2581Haden": 4797,
    "\u2581announcement": 4798,
    "\u2581lane": 4799,
    "\u2581pink": 4800,
    "\u2581Shinar": 4801,
    "\u2581towel": 4802,
    "\u2581adj": 4803,
    "\u2581tempest": 4804,
    "\u2581scoop": 4805,
    "\u2581flick": 4806,
    "\u2581Gran": 4807,
    "\u2581patch": 4808,
    "\u2581package": 4809,
    "\u2581midday": 4810,
    "\u2581conceal": 4811,
    "\u2581candy": 4812,
    "ntil": 4813,
    "\u2581apostleship": 4814,
    "\u2581halt": 4815,
    "\u2581entangle": 4816,
    "\u2581Elam": 4817,
    "\u2581guilty": 4818,
    "\u2581loving": 4819,
    "\u2581crime": 4820,
    "\u2581malice": 4821,
    "\u2581countries": 4822,
    "\u2581heathen": 4823,
    "\u2581awkwardly": 4824,
    "\u2581crash": 4825,
    "\u2581Miz": 4826,
    "ndy": 4827,
    "\u2581shore": 4828,
    "ville": 4829,
    "\u2581main": 4830,
    "\u2581pillow": 4831,
    "\u2581claw": 4832,
    "\u2581furthermore": 4833,
    "\u2581satisfied": 4834,
    "\u2581defer": 4835,
    "\u2581thistles": 4836,
    "\u2581stedfastness": 4837,
    "\u2581vo": 4838,
    "\u2581Weep": 4839,
    "\u2581barbarian": 4840,
    "\u2581bill": 4841,
    "\u2581communicate": 4842,
    "\u2581husbandman": 4843,
    "\u2581Abib": 4844,
    "\u2581cleansing": 4845,
    "\u2581nearby": 4846,
    "\u2581operat": 4847,
    "\u2581sheepfold": 4848,
    "\u2581easily": 4849,
    "\u2581super": 4850,
    "\u2581blast": 4851,
    "\u2581jar": 4852,
    "\u2581armor": 4853,
    "\u2581violent": 4854,
    "\u2581forsaken": 4855,
    "\u2581grunted": 4856,
    "\u2581gambl": 4857,
    "chol": 4858,
    "eedy": 4859,
    "\u2581crushed": 4860,
    "\u2581phone": 4861,
    "\u2581whiteman": 4862,
    "\u2581disturb": 4863,
    "\u2581skirt": 4864,
    "no": 4865,
    "\u2581grease": 4866,
    "\u2581wealth": 4867,
    "\u2581supplieth": 4868,
    "\u2581Jam": 4869,
    "ently": 4870,
    "\u2581blame": 4871,
    "\u2581difficulty": 4872,
    "\u2581agreement": 4873,
    "\u2581contend": 4874,
    "\u2581vaguely": 4875,
    "\u2581Else": 4876,
    "\u2581needful": 4877,
    "pro": 4878,
    "\u2581weaving": 4879,
    "\u2581wrist": 4880,
    "\u2581dare": 4881,
    "\u2581cheerfully": 4882,
    "\u2581cost": 4883,
    "\u2581trott": 4884,
    "\u2581curv": 4885,
    "\u2581acres": 4886,
    "\u2581ribs": 4887,
    "\u2581magistrates": 4888,
    "\u2581Lotan": 4889,
    "\u2581knot": 4890,
    "\u2581candie": 4891,
    "\u2581briefly": 4892,
    "sual": 4893,
    "\u2581deceitfully": 4894,
    "\u2581persecutest": 4895,
    "\u2581maple": 4896,
    "\u2581ability": 4897,
    "\u2581fiercely": 4898,
    "\u2581sink": 4899,
    "\u2581vanished": 4900,
    "\u2581overhead": 4901,
    "\u2581arranged": 4902,
    "\u2581slipp": 4903,
    "\u2581sower": 4904,
    "\u2581silently": 4905,
    "\u2581clang": 4906,
    "quil": 4907,
    "\u2581float": 4908,
    "\u2581stalk": 4909,
    "ode": 4910,
    "\u2581Summ": 4911,
    "\u2581block": 4912,
    "\u2581wink": 4913,
    "\u2581quake": 4914,
    "\u2581reconciled": 4915,
    "\u2581platt": 4916,
    "\u2581shovel": 4917,
    "\u2581thirsty": 4918,
    "\u2581soup": 4919,
    "\u2581Never": 4920,
    "\u2581overthrown": 4921,
    "\u2581remark": 4922,
    "\u2581Men": 4923,
    "\u2581steady": 4924,
    "ration": 4925,
    "\u2581sincere": 4926,
    "\u2581slopes": 4927,
    "\u2581physicians": 4928,
    "\u2581killers": 4929,
    "\u2581dad": 4930,
    "\u2581action": 4931,
    "\u2581louder": 4932,
    "irst": 4933,
    "\u2581endless": 4934,
    "\u2581commendeth": 4935,
    "\u2581groaned": 4936,
    "\u2581card": 4937,
    "\u2581manservant": 4938,
    "\u2581anew": 4939,
    "\u2581joint": 4940,
    "\u2581sever": 4941,
    "\u2581stumbleth": 4942,
    "\u2581pushing": 4943,
    "\u2581naturally": 4944,
    "azed": 4945,
    "\u2581flip": 4946,
    "\u2581earrings": 4947,
    "\u2581lepers": 4948,
    "\u2581boughs": 4949,
    "\u2581transgressors": 4950,
    "\u2581faithless": 4951,
    "\u2581invented": 4952,
    "\u2581shit": 4953,
    "\u2581trapper": 4954,
    "\u2581sojourners": 4955,
    "\u2581oppressed": 4956,
    "\u2581confirmed": 4957,
    "\u2581Remov": 4958,
    "\u2581melted": 4959,
    "\u2581urge": 4960,
    "\u2581yester": 4961,
    "\u2581wildly": 4962,
    "\u2581completed": 4963,
    "\u2581particle": 4964,
    "\u2581whoring": 4965,
    "\u2581companions": 4966,
    "\u2581Hous": 4967,
    "\u2581hon": 4968,
    "\u2581pomegranates": 4969,
    "\u2581weapons": 4970,
    "\u2581wond": 4971,
    "ev": 4972,
    "\u2581actions": 4973,
    "\u2581overmuch": 4974,
    "\u2581hatched": 4975,
    "\u2581Teman": 4976,
    "\u2581continueth": 4977,
    "\u2581commandeth": 4978,
    "\u2581rep": 4979,
    "king": 4980,
    "\u2581wh": 4981,
    "\u2581mourned": 4982,
    "\u2581extortioner": 4983,
    "this": 4984,
    "\u2581thereto": 4985,
    "alutations": 4986,
    "\u2581mudd": 4987,
    "\u2581sen": 4988,
    "aid": 4989,
    "\u2581ci": 4990,
    "\u2581department": 4991,
    "position": 4992,
    "erable": 4993,
    "\u2581comb": 4994,
    "\u2581rider": 4995,
    "In": 4996,
    "\u2581richly": 4997,
    "rops": 4998,
    "lessly": 4999,
    "\u2581liars": 5000,
    "\u2581statutes": 5001,
    "\u2581provisions": 5002,
    "\u2581persecutions": 5003,
    "ac": 5004,
    "\u2581chin": 5005,
    "\u2581guns": 5006,
    "\u2581murderers": 5007,
    "za": 5008,
    "\u2581sucked": 5009,
    "\u2581needy": 5010,
    "\u2581transform": 5011,
    "\u2581Romans": 5012,
    "\u2581wanton": 5013,
    "\u2581finest": 5014,
    "\u2581driver": 5015,
    "\u2581preacheth": 5016,
    "\u2581dances": 5017,
    "\u2581squa": 5018,
    "oc": 5019,
    "\u2581deeply": 5020,
    "\u2581smoked": 5021,
    "ups": 5022,
    "cum": 5023,
    "\u2581lacked": 5024,
    "gered": 5025,
    "unny": 5026,
    "\u2581mete": 5027,
    "\u2581goes": 5028,
    "its": 5029,
    "\u2581pi": 5030,
    "\u2581nests": 5031,
    "\u2581games": 5032,
    "\u2581captives": 5033,
    "\u2581habitations": 5034,
    "\u2581girls": 5035,
    "ep": 5036,
    "\u2581profited": 5037,
    "\u2581flowers": 5038,
    "vice": 5039,
    "\u2581trapp": 5040,
    "\u2581regarded": 5041,
    "ction": 5042,
    "\u2581thighs": 5043,
    "tty": 5044,
    "\u2581worrying": 5045,
    "T": 5046,
    "\u2581amount": 5047,
    "\u2581righteously": 5048,
    "oth": 5049,
    "\u2581logs": 5050,
    "\u2581willeth": 5051,
    "\u2581killeth": 5052,
    "cakes": 5053,
    "\u2581colors": 5054,
    "\u2581papers": 5055,
    "mong": 5056,
    "\u2581tea": 5057,
    "\u2581customs": 5058,
    "ius": 5059,
    "che": 5060,
    "\u2581regions": 5061,
    "\u2581forgett": 5062,
    "ric": 5063,
    "\u2581seasoned": 5064,
    "\u2581embrace": 5065,
    "bs": 5066,
    "\u2581Abid": 5067,
    "\u2581tomorrow": 5068,
    "\u2581streams": 5069,
    "\u2581Christian": 5070,
    "\u2581worshipp": 5071,
    "\u2581style": 5072,
    "full": 5073,
    "\u2581figs": 5074,
    "\u2581aged": 5075,
    "\u2581buildings": 5076,
    "\u2581meaning": 5077,
    "\u2581staying": 5078,
    "\u2581crowned": 5079,
    "\u2581visions": 5080,
    "\u2581owners": 5081,
    "uz": 5082,
    "\u2581Fe": 5083,
    "\u2581mon": 5084,
    "\u2581governors": 5085,
    "\u2581sus": 5086,
    "\u2581ships": 5087,
    "figur": 5088,
    "\u2581Par": 5089,
    "arm": 5090,
    "et": 5091,
    "ives": 5092,
    "\u2581treat": 5093,
    "inning": 5094,
    "\u2581charges": 5095,
    "compelled": 5096,
    "\u2581Eph": 5097,
    "\u2581afternoons": 5098,
    "\u2581doings": 5099,
    "enable": 5100,
    "\u2581ink": 5101,
    "ok": 5102,
    "\u2581penn": 5103,
    "mma": 5104,
    "\u2581wanting": 5105,
    "fe": 5106,
    "\u2581edges": 5107,
    "\u2581rehears": 5108,
    "racles": 5109,
    "\u2581writer": 5110,
    "\u2581favorabl": 5111,
    "\u2581rattle": 5112,
    "tent": 5113,
    "inner": 5114,
    "anke": 5115,
    "\u2581conce": 5116,
    "\u2581busi": 5117,
    "\u2581smit": 5118,
    "\u2581perp": 5119,
    "\u2581shower": 5120,
    "\u2581Was": 5121,
    "\u2581earthy": 5122,
    "ons": 5123,
    "\u2581Stop": 5124,
    "\u2581swords": 5125,
    "\u2581fellows": 5126,
    "bone": 5127,
    "\u2581entice": 5128,
    "ave": 5129,
    "\u2581belong": 5130,
    "\u2581journeys": 5131,
    "\u2581lap": 5132,
    "\u2581differ": 5133,
    "\u2581prisons": 5134,
    "\u2581heel": 5135,
    "x": 5136,
    "\u2581curl": 5137,
    "ema": 5138,
    "eral": 5139,
    "Be": 5140,
    "vil": 5141,
    "born": 5142,
    "\u2581beard": 5143,
    "ich": 5144,
    "ular": 5145,
    "ddle": 5146,
    "\u2581Ben": 5147,
    "\u2581Ph": 5148,
    "aking": 5149,
    "\u2581afore": 5150,
    "ban": 5151,
    "\u2581lashe": 5152,
    "\u2581earthly": 5153,
    "van": 5154,
    "\u2581ch": 5155,
    "\u2581meats": 5156,
    "ore": 5157,
    "bel": 5158,
    "wled": 5159,
    "dder": 5160,
    "wood": 5161,
    "\u2581argu": 5162,
    "\u2581mus": 5163,
    "\u2581Phi": 5164,
    "ond": 5165,
    "\u2581interrupt": 5166,
    "\u2581gaz": 5167,
    "her": 5168,
    "\u2581feasts": 5169,
    "wardly": 5170,
    "\u2581struggle": 5171,
    "nut": 5172,
    "\u2581parting": 5173,
    "ai": 5174,
    "\u2581inch": 5175,
    "\u2581owe": 5176,
    "\u2581Shal": 5177,
    "pringtime": 5178,
    "\u2581ob": 5179,
    "\u2581driv": 5180,
    "lation": 5181,
    "dding": 5182,
    "\u2581hug": 5183,
    "\u2581strik": 5184,
    "ro": 5185,
    "\u2581breathe": 5186,
    "\u2581Pra": 5187,
    "mortal": 5188,
    "\u2581temperat": 5189,
    "rred": 5190,
    "\u2581pur": 5191,
    "\u2581j": 5192,
    "uni": 5193,
    "ities": 5194,
    "nic": 5195,
    "uring": 5196,
    "lings": 5197,
    "\u2581ascend": 5198,
    "\u2581striv": 5199,
    "itches": 5200,
    "\u2581cares": 5201,
    "\u2581calls": 5202,
    "\u2581Ass": 5203,
    "\u2581crack": 5204,
    "uddle": 5205,
    "doers": 5206,
    "\u2581mis": 5207,
    "ener": 5208,
    "urn": 5209,
    "lab": 5210,
    "ten": 5211,
    "fare": 5212,
    "fire": 5213,
    "\u2581bre": 5214,
    "ca": 5215,
    "\u2581Ro": 5216,
    "rian": 5217,
    "\u2581Eu": 5218,
    "\u2581oppos": 5219,
    "eyed": 5220,
    "we": 5221,
    "\u2581Eve": 5222,
    "mus": 5223,
    "\u2581embrac": 5224,
    "tting": 5225,
    "ati": 5226,
    "mmed": 5227,
    "tery": 5228,
    "tops": 5229,
    "\u2581fla": 5230,
    "lia": 5231,
    "\u2581resid": 5232,
    "rance": 5233,
    "\u2581fre": 5234,
    "\u2581temples": 5235,
    "eries": 5236,
    "\u2581chi": 5237,
    "ak": 5238,
    "pher": 5239,
    "\u2581hasted": 5240,
    "\u2581backs": 5241,
    "\u2581Sal": 5242,
    "sha": 5243,
    "\u2581bu": 5244,
    "unted": 5245,
    "aimed": 5246,
    "\u2581fir": 5247,
    "ized": 5248,
    "Th": 5249,
    "ega": 5250,
    "handed": 5251,
    "\u2581Mes": 5252,
    "\u2581extortion": 5253,
    "ading": 5254,
    "\u2581wrest": 5255,
    "doer": 5256,
    "\u2581compel": 5257,
    "gg": 5258,
    "\u2581bough": 5259,
    "nceforth": 5260,
    "orted": 5261,
    "\u2581chasten": 5262,
    "\u2581benefit": 5263,
    "\u2581patriarch": 5264,
    "\u2581guest": 5265,
    "\u2581result": 5266,
    "\u2581bishop": 5267,
    "\u2581ewe": 5268,
    "will": 5269,
    "rches": 5270,
    "\u2581faction": 5271,
    "\u2581psalm": 5272,
    "\u2581senator": 5273,
    "come": 5274,
    "\u2581pigeon": 5275,
    "\u2581whisper": 5276,
    "\u2581eagle": 5277,
    "\u2581repute": 5278,
    "\u2581section": 5279,
    "\u2581Levite": 5280,
    "dressed": 5281,
    "\u2581leper": 5282,
    "unch": 5283,
    "\u2581transgressor": 5284,
    "\u2581Jebusite": 5285,
    "\u2581Perizzite": 5286,
    "\u2581fornicator": 5287,
    "hand": 5288,
    "\u2581peoples": 5289,
    "\u2581bla": 5290,
    "\u2581earring": 5291,
    "\u2581shelter": 5292,
    "\u2581hook": 5293,
    "\u2581bo": 5294,
    "upon": 5295,
    "\u2581stab": 5296,
    "\u2581spice": 5297,
    "\u2581sojourner": 5298,
    "eas": 5299,
    "quench": 5300,
    "\u2581gir": 5301,
    "witch": 5302,
    "load": 5303,
    "\u2581needle": 5304,
    "bbed": 5305,
    "\u2581farmer": 5306,
    "Certainly": 5307,
    "warm": 5308,
    "owing": 5309,
    "worm": 5310,
    "bas": 5311,
    "Y": 5312,
    "stood": 5313,
    "ridge": 5314,
    "hearted": 5315,
    "Pig": 5316,
    "floor": 5317,
    "prisoner": 5318,
    "Ho": 5319,
    "hooks": 5320,
    "learned": 5321,
    "legs": 5322,
    "quiet": 5323,
    "pieces": 5324,
    "break": 5325,
    "thirty": 5326,
    "closed": 5327,
    "blood": 5328,
    "finger": 5329,
    "wife": 5330,
    "Take": 5331,
    "ground": 5332,
    "looking": 5333,
    "ick": 5334,
    "\u2581encounter": 5335,
    "\u2581remov": 5336,
    "Sure": 5337,
    "\u2581assembl": 5338,
    "ocked": 5339,
    "\u2581affirm": 5340,
    "\u2581buffet": 5341,
    "\u2581loos": 5342,
    "Every": 5343,
    "\u2581explo": 5344,
    "\u2581refresh": 5345,
    "speak": 5346,
    "\u2581fix": 5347,
    "volut": 5348,
    "sembled": 5349,
    "que": 5350,
    "back": 5351,
    "five": 5352,
    "An": 5353,
    "hath": 5354,
    "\u2581miss": 5355,
    "\u2581Alexandria": 5356,
    "Here": 5357,
    "Te": 5358,
    "\u2581Right": 5359,
    "\u2581cree": 5360,
    "\u2581enlarge": 5361,
    "\u2581relieve": 5362,
    "\u2581prophesie": 5363,
    "\u2581purchase": 5364,
    "\u2581bore": 5365,
    "\u2581determine": 5366,
    "\u2581excuse": 5367,
    "\u2581marrie": 5368,
    "\u2581pursue": 5369,
    "\u2581arrive": 5370,
    "\u2581meek": 5371,
    "\u2581pierce": 5372,
    "posed": 5373,
    "\u2581delicate": 5374,
    "\u2581nervous": 5375,
    "\u2581app": 5376,
    "cient": 5377,
    "\u2581private": 5378,
    "ocia": 5379,
    "alvation": 5380,
    "\u2581possibl": 5381,
    "\u2581jealous": 5382,
    "atic": 5383,
    "ju": 5384,
    "ected": 5385,
    "upp": 5386,
    "istles": 5387,
    "\u2581brim": 5388,
    "roi": 5389,
    "\u2581gener": 5390,
    "ossum": 5391,
    "\u2581mirac": 5392,
    "ntity": 5393,
    "\u2581forgot": 5394,
    "\u2581princip": 5395,
    "\u2581meditat": 5396,
    "\u2581announce": 5397,
    "orthy": 5398,
    "appy": 5399,
    "reakfast": 5400,
    "\u2581author": 5401,
    "olonel": 5402,
    "\u2581desp": 5403,
    "oyal": 5404,
    "\u2581apprecia": 5405,
    "Congratu": 5406,
    "\u2581Jehovah": 5407,
    "wilight": 5408,
    "zziah": 5409,
    "\u2581Adullamite": 5410,
    "\u2581Ahaz": 5411,
    "\u2581Aranea": 5412,
    "\u2581Bartholomew": 5413,
    "\u2581Bernice": 5414,
    "\u2581Bethphage": 5415,
    "\u2581Boaz": 5416,
    "\u2581Boston": 5417,
    "\u2581Chaldees": 5418,
    "\u2581Chesapeake": 5419,
    "\u2581Crawdaddy": 5420,
    "\u2581Decapolis": 5421,
    "\u2581Demetrius": 5422,
    "\u2581Echota": 5423,
    "\u2581Eliezer": 5424,
    "\u2581Epaphras": 5425,
    "\u2581Ethiopia": 5426,
    "\u2581Galway": 5427,
    "\u2581Gennesaret": 5428,
    "\u2581Gershon": 5429,
    "\u2581Golgotha": 5430,
    "\u2581Hallelujah": 5431,
    "\u2581Hezekiah": 5432,
    "\u2581Horeb": 5433,
    "\u2581Jeremiah": 5434,
    "\u2581Joktan": 5435,
    "\u2581Jotham": 5436,
    "\u2581Jupiter": 5437,
    "\u2581Kadesh": 5438,
    "\u2581Kenaz": 5439,
    "\u2581Luke": 5440,
    "\u2581Matthew": 5441,
    "\u2581Merari": 5442,
    "\u2581Nahshon": 5443,
    "\u2581Nebajoth": 5444,
    "\u2581Nellie": 5445,
    "\u2581Notwithstanding": 5446,
    "\u2581Olivet": 5447,
    "\u2581Peabody": 5448,
    "\u2581Pentecost": 5449,
    "\u2581Perez": 5450,
    "\u2581Perga": 5451,
    "\u2581Pharez": 5452,
    "\u2581Phrygia": 5453,
    "\u2581Pontus": 5454,
    "\u2581Prince": 5455,
    "\u2581Priscilla": 5456,
    "\u2581Psalms": 5457,
    "\u2581Rehoboth": 5458,
    "\u2581Rephidim": 5459,
    "\u2581Sardis": 5460,
    "\u2581Shealtiel": 5461,
    "\u2581Siddim": 5462,
    "\u2581Silvanus": 5463,
    "\u2581Street": 5464,
    "\u2581Symeon": 5465,
    "\u2581Tarshish": 5466,
    "\u2581Thessalonica": 5467,
    "\u2581Trophimus": 5468,
    "\u2581Twelve": 5469,
    "\u2581Zeboi": 5470,
    "\u2581Zillah": 5471,
    "\u2581Zipporah": 5472,
    "\u2581achieve": 5473,
    "\u2581addition": 5474,
    "\u2581advance": 5475,
    "\u2581aeronaut": 5476,
    "\u2581affairs": 5477,
    "\u2581anxiety": 5478,
    "\u2581apiece": 5479,
    "\u2581attire": 5480,
    "\u2581avail": 5481,
    "\u2581balsam": 5482,
    "\u2581bountifully": 5483,
    "\u2581canvas": 5484,
    "\u2581captivity": 5485,
    "\u2581chickadee": 5486,
    "\u2581colours": 5487,
    "\u2581column": 5488,
    "\u2581conclusion": 5489,
    "\u2581conduct": 5490,
    "\u2581conflict": 5491,
    "\u2581congealed": 5492,
    "\u2581constructed": 5493,
    "\u2581contrariwise": 5494,
    "\u2581contributi": 5495,
    "\u2581corpse": 5496,
    "\u2581crazy": 5497,
    "\u2581curiosity": 5498,
    "\u2581deacons": 5499,
    "\u2581desperation": 5500,
    "\u2581destiny": 5501,
    "\u2581disorderly": 5502,
    "\u2581disputing": 5503,
    "\u2581dissension": 5504,
    "\u2581district": 5505,
    "\u2581draught": 5506,
    "\u2581dungeon": 5507,
    "\u2581edifieth": 5508,
    "\u2581embarrass": 5509,
    "\u2581esteem": 5510,
    "\u2581exhausted": 5511,
    "\u2581exotic": 5512,
    "\u2581farewell": 5513,
    "\u2581fascinating": 5514,
    "\u2581feeble": 5515,
    "\u2581fetters": 5516,
    "\u2581fifties": 5517,
    "\u2581forewarn": 5518,
    "\u2581fragments": 5519,
    "\u2581frankincense": 5520,
    "\u2581furnished": 5521,
    "\u2581handbreadth": 5522,
    "\u2581hayloft": 5523,
    "\u2581hymn": 5524,
    "\u2581immortality": 5525,
    "\u2581increasing": 5526,
    "\u2581jailor": 5527,
    "\u2581journals": 5528,
    "\u2581kinsfolk": 5529,
    "\u2581knothole": 5530,
    "\u2581leanfleshed": 5531,
    "\u2581lodging": 5532,
    "\u2581machine": 5533,
    "\u2581matrix": 5534,
    "\u2581meadow": 5535,
    "\u2581mistress": 5536,
    "\u2581moisture": 5537,
    "\u2581mosquitoes": 5538,
    "\u2581oblig": 5539,
    "\u2581opposition": 5540,
    "\u2581philosoph": 5541,
    "\u2581pilgrimage": 5542,
    "\u2581pistol": 5543,
    "\u2581poison": 5544,
    "\u2581poverty": 5545,
    "\u2581predator": 5546,
    "\u2581produce": 5547,
    "\u2581rabbit": 5548,
    "\u2581recognize": 5549,
    "\u2581rectang": 5550,
    "\u2581remnant": 5551,
    "\u2581replenish": 5552,
    "\u2581representatives": 5553,
    "\u2581retrieve": 5554,
    "\u2581sermon": 5555,
    "\u2581shewbread": 5556,
    "\u2581shoot": 5557,
    "\u2581shotgun": 5558,
    "\u2581subsistence": 5559,
    "\u2581swept": 5560,
    "\u2581swipe": 5561,
    "\u2581tavern": 5562,
    "\u2581terrain": 5563,
    "\u2581territory": 5564,
    "\u2581throng": 5565,
    "\u2581titmouse": 5566,
    "\u2581tread": 5567,
    "\u2581unawares": 5568,
    "\u2581unceasing": 5569,
    "\u2581undefiled": 5570,
    "\u2581unexpected": 5571,
    "\u2581unjust": 5572,
    "\u2581unknown": 5573,
    "\u2581unreasonable": 5574,
    "\u2581unveiled": 5575,
    "\u2581uproar": 5576,
    "\u2581vehemently": 5577,
    "\u2581vertical": 5578,
    "\u2581virtue": 5579,
    "\u2581waterproof": 5580,
    "\u2581yesternight": 5581,
    "\u2581antichrist": 5582,
    "\u2581compact": 5583,
    "\u2581congress": 5584,
    "\u2581dedicat": 5585,
    "\u2581gnat": 5586,
    "\u2581maintain": 5587,
    "\u2581oven": 5588,
    "\u2581unloaded": 5589,
    "\u2581Asshur": 5590,
    "\u2581Demas": 5591,
    "\u2581Latin": 5592,
    "\u2581clover": 5593,
    "\u2581conquer": 5594,
    "\u2581distinguish": 5595,
    "\u2581dowry": 5596,
    "\u2581dusk": 5597,
    "\u2581freeze": 5598,
    "\u2581major": 5599,
    "\u2581overwhelm": 5600,
    "\u2581pitfall": 5601,
    "\u2581proverb": 5602,
    "\u2581quiver": 5603,
    "\u2581Dishan": 5604,
    "\u2581Glory": 5605,
    "\u2581agony": 5606,
    "\u2581desk": 5607,
    "\u2581saddlebag": 5608,
    "\u2581succeed": 5609,
    "\u2581superscription": 5610,
    "Play": 5611,
    "dopted": 5612,
    "satisfact": 5613,
    "\u2581Serve": 5614,
    "\u2581cedar": 5615,
    "\u2581conclud": 5616,
    "\u2581loaf": 5617,
    "\u2581lucre": 5618,
    "\u2581oats": 5619,
    "\u2581satisfy": 5620,
    "\u2581topaz": 5621,
    "vaga": 5622,
    "\u2581Bind": 5623,
    "\u2581Erastus": 5624,
    "\u2581moaned": 5625,
    "\u2581smart": 5626,
    "\u2581Besides": 5627,
    "\u2581Talk": 5628,
    "\u2581backbit": 5629,
    "\u2581profess": 5630,
    "timber": 5631,
    "\u2581Arabia": 5632,
    "\u2581approaching": 5633,
    "\u2581undone": 5634,
    "\u2581Dedan": 5635,
    "\u2581procur": 5636,
    "\u2581Shobal": 5637,
    "\u2581authorities": 5638,
    "\u2581consult": 5639,
    "Could": 5640,
    "\u2581limp": 5641,
    "havi": 5642,
    "\u2581Welch": 5643,
    "\u2581brawle": 5644,
    "\u2581Jobab": 5645,
    "\u2581River": 5646,
    "\u2581wafer": 5647,
    "alley": 5648,
    "\u2581abated": 5649,
    "\u2581emotion": 5650,
    "\u2581surround": 5651,
    "\u2581united": 5652,
    "\u2581Balaam": 5653,
    "\u2581delicious": 5654,
    "\u2581dread": 5655,
    "\u2581abuse": 5656,
    "\u2581engage": 5657,
    "\u2581swimming": 5658,
    "\u2581Marah": 5659,
    "\u2581mumbled": 5660,
    "\u2581stock": 5661,
    "\u2581tanner": 5662,
    "\u2581Syr": 5663,
    "\u2581Tiberias": 5664,
    "\u2581Phoenicia": 5665,
    "\u2581assistance": 5666,
    "\u2581ceasing": 5667,
    "\u2581tape": 5668,
    "\u2581pottage": 5669,
    "\u2581trading": 5670,
    "\u2581chide": 5671,
    "\u2581rebelled": 5672,
    "\u2581slanderers": 5673,
    "\u2581Territories": 5674,
    "\u2581prophetess": 5675,
    "\u2581sheaf": 5676,
    "\u2581Prisc": 5677,
    "\u2581glow": 5678,
    "\u2581grownups": 5679,
    "\u2581terrify": 5680,
    "\u2581vote": 5681,
    "\u2581pestilence": 5682,
    "\u2581quill": 5683,
    "\u2581Creator": 5684,
    "\u2581midway": 5685,
    "\u2581route": 5686,
    "\u2581slant": 5687,
    "\u2581luck": 5688,
    "\u2581brink": 5689,
    "\u2581nobleman": 5690,
    "OM": 5691,
    "choni": 5692,
    "\u2581device": 5693,
    "iletus": 5694,
    "\u2581scent": 5695,
    "ella": 5696,
    "\u2581contentious": 5697,
    "\u2581Shuah": 5698,
    "\u2581cords": 5699,
    "\u2581smear": 5700,
    "\u2581Zeal": 5701,
    "\u2581Paradise": 5702,
    "\u2581stubble": 5703,
    "\u2581indig": 5704,
    "\u2581Ezer": 5705,
    "\u2581Luz": 5706,
    "\u2581bolt": 5707,
    "clock": 5708,
    "\u2581Fift": 5709,
    "\u2581destitute": 5710,
    "kling": 5711,
    "\u2581Lys": 5712,
    "\u2581crafti": 5713,
    "\u2581spun": 5714,
    "\u2581amiss": 5715,
    "everal": 5716,
    "\u2581prun": 5717,
    "\u2581mistake": 5718,
    "east": 5719,
    "\u2581locks": 5720,
    "\u2581pouches": 5721,
    "\u2581safety": 5722,
    "\u2581birch": 5723,
    "\u2581variet": 5724,
    "\u2581lounge": 5725,
    "phath": 5726,
    "\u2581affectionate": 5727,
    "\u2581responsibilit": 5728,
    "\u2581bondman": 5729,
    "\u2581possum": 5730,
    "\u2581Herodians": 5731,
    "\u2581lobby": 5732,
    "\u2581moonlight": 5733,
    "\u2581harness": 5734,
    "\u2581poking": 5735,
    "\u2581shorn": 5736,
    "\u2581birthday": 5737,
    "\u2581lawlessness": 5738,
    "\u2581Corn": 5739,
    "\u2581errand": 5740,
    "\u2581cruse": 5741,
    "\u2581favorite": 5742,
    "\u2581spru": 5743,
    "\u2581stank": 5744,
    "noch": 5745,
    "\u2581jerky": 5746,
    "\u2581hireling": 5747,
    "\u2581garnet": 5748,
    "\u2581hatred": 5749,
    "\u2581justification": 5750,
    "\u2581Still": 5751,
    "\u2581Big": 5752,
    "\u2581modest": 5753,
    "\u2581sideboards": 5754,
    "\u2581correction": 5755,
    "\u2581imprisonment": 5756,
    "\u2581advertisement": 5757,
    "\u2581peel": 5758,
    "\u2581lain": 5759,
    "\u2581Pass": 5760,
    "\u2581weaned": 5761,
    "\u2581lowliness": 5762,
    "\u2581Meat": 5763,
    "\u2581beryl": 5764,
    "\u2581equality": 5765,
    "\u2581Elon": 5766,
    "\u2581pallet": 5767,
    "\u2581departure": 5768,
    "\u2581Hard": 5769,
    "\u2581ladder": 5770,
    "\u2581population": 5771,
    "\u2581Esh": 5772,
    "\u2581womenservants": 5773,
    "ulous": 5774,
    "\u2581scarce": 5775,
    "\u2581harmless": 5776,
    "\u2581Bethel": 5777,
    "\u2581withereth": 5778,
    "\u2581moss": 5779,
    "\u2581forks": 5780,
    "\u2581braid": 5781,
    "pparent": 5782,
    "\u2581observation": 5783,
    "\u2581heritage": 5784,
    "\u2581trance": 5785,
    "\u2581hateful": 5786,
    "\u2581Mother": 5787,
    "\u2581weaknesses": 5788,
    "\u2581decease": 5789,
    "\u2581cele": 5790,
    "\u2581Cush": 5791,
    "\u2581lofty": 5792,
    "\u2581thoughtfully": 5793,
    "\u2581specifi": 5794,
    "\u2581practic": 5795,
    "circling": 5796,
    "\u2581resolv": 5797,
    "\u2581boundary": 5798,
    "\u2581joyful": 5799,
    "\u2581owest": 5800,
    "\u2581Canaanit": 5801,
    "\u2581visitors": 5802,
    "\u2581More": 5803,
    "\u2581cust": 5804,
    "\u2581Dog": 5805,
    "\u2581purser": 5806,
    "\u2581bay": 5807,
    "little": 5808,
    "\u2581Ram": 5809,
    "\u2581broth": 5810,
    "\u2581deliverance": 5811,
    "\u2581engraver": 5812,
    "\u2581Life": 5813,
    "\u2581hoisted": 5814,
    "\u2581enlightened": 5815,
    "\u2581Timnath": 5816,
    "\u2581Lif": 5817,
    "mates": 5818,
    "\u2581lingere": 5819,
    "\u2581sevenfold": 5820,
    "\u2581exist": 5821,
    "\u2581rare": 5822,
    "lves": 5823,
    "\u2581bitterness": 5824,
    "\u2581treaty": 5825,
    "\u2581nervously": 5826,
    "\u2581alleg": 5827,
    "\u2581reviled": 5828,
    "\u2581thefts": 5829,
    "\u2581Five": 5830,
    "\u2581overhear": 5831,
    "ubtle": 5832,
    "\u2581fur": 5833,
    "\u2581swoop": 5834,
    "\u2581waist": 5835,
    "\u2581wishes": 5836,
    "\u2581drift": 5837,
    "\u2581rifle": 5838,
    "\u2581smoking": 5839,
    "\u2581ridden": 5840,
    "\u2581barrel": 5841,
    "\u2581Any": 5842,
    "\u2581collection": 5843,
    "\u2581Really": 5844,
    "\u2581sobbed": 5845,
    "lick": 5846,
    "\u2581Ski": 5847,
    "\u2581clu": 5848,
    "\u2581maiden": 5849,
    "\u2581Away": 5850,
    "\u2581slice": 5851,
    "\u2581interpreter": 5852,
    "\u2581Amram": 5853,
    "\u2581costly": 5854,
    "\u2581safely": 5855,
    "\u2581stall": 5856,
    "\u2581avenger": 5857,
    "\u2581quietness": 5858,
    "\u2581dishes": 5859,
    "roughly": 5860,
    "\u2581plantation": 5861,
    "\u2581forgiveness": 5862,
    "\u2581Athens": 5863,
    "\u2581Horites": 5864,
    "\u2581Ephesians": 5865,
    "\u2581buttocks": 5866,
    "\u2581malefactors": 5867,
    "\u2581ornaments": 5868,
    "\u2581stairs": 5869,
    "\u2581spoons": 5870,
    "\u2581mounds": 5871,
    "\u2581reflect": 5872,
    "\u2581enlarged": 5873,
    "\u2581plead": 5874,
    "\u2581discour": 5875,
    "\u2581sowest": 5876,
    "\u2581prey": 5877,
    "\u2581workman": 5878,
    "\u2581builders": 5879,
    "makers": 5880,
    "\u2581fervently": 5881,
    "\u2581confidently": 5882,
    "\u2581passway": 5883,
    "\u2581sport": 5884,
    "\u2581Obed": 5885,
    "gar": 5886,
    "\u2581blasphemeth": 5887,
    "\u2581blackness": 5888,
    "bib": 5889,
    "\u2581sup": 5890,
    "\u2581fadeth": 5891,
    "\u2581knocketh": 5892,
    "\u2581quenched": 5893,
    "\u2581confounded": 5894,
    "\u2581hallowed": 5895,
    "\u2581unfe": 5896,
    "\u2581excited": 5897,
    "\u2581balloonist": 5898,
    "\u2581signifying": 5899,
    "\u2581threshing": 5900,
    "\u2581basin": 5901,
    "\u2581blink": 5902,
    "\u2581faithfulness": 5903,
    "\u2581lit": 5904,
    "uci": 5905,
    "quet": 5906,
    "\u2581compli": 5907,
    "\u2581trout": 5908,
    "\u2581source": 5909,
    "\u2581patiently": 5910,
    "cated": 5911,
    "\u2581referr": 5912,
    "\u2581surprised": 5913,
    "\u2581bruised": 5914,
    "\u2581Ash": 5915,
    "\u2581consideration": 5916,
    "\u2581passion": 5917,
    "llaba": 5918,
    "\u2581uprightly": 5919,
    "\u2581diam": 5920,
    "\u2581address": 5921,
    "\u2581pans": 5922,
    "\u2581fishers": 5923,
    "aster": 5924,
    "\u2581tie": 5925,
    "\u2581affirmed": 5926,
    "\u2581buffeted": 5927,
    "\u2581chastened": 5928,
    "\u2581eighteen": 5929,
    "\u2581outwardly": 5930,
    "uit": 5931,
    "\u2581mash": 5932,
    "\u2581squat": 5933,
    "\u2581childless": 5934,
    "\u2581pierced": 5935,
    "onge": 5936,
    "\u2581contention": 5937,
    "\u2581hor": 5938,
    "\u2581joke": 5939,
    "\u2581beheaded": 5940,
    "\u2581AN": 5941,
    "\u2581eleventh": 5942,
    "\u2581pleasantly": 5943,
    "ament": 5944,
    "stance": 5945,
    "\u2581brimm": 5946,
    "\u2581strands": 5947,
    "\u2581anchors": 5948,
    "\u2581features": 5949,
    "\u2581sorcerers": 5950,
    "\u2581None": 5951,
    "\u2581basons": 5952,
    "\u2581peaceable": 5953,
    "did": 5954,
    "\u2581defilement": 5955,
    "\u2581memorialize": 5956,
    "\u2581purifie": 5957,
    "\u2581Certainly": 5958,
    "\u2581Hunt": 5959,
    "mission": 5960,
    "\u2581army": 5961,
    "avan": 5962,
    "\u2581purifying": 5963,
    "\u2581bidd": 5964,
    "\u2581preserved": 5965,
    "\u2581provoked": 5966,
    "hair": 5967,
    "\u2581reapeth": 5968,
    "\u2581outhouse": 5969,
    "gate": 5970,
    "\u2581control": 5971,
    "\u2581Herm": 5972,
    "\u2581har": 5973,
    "\u2581destroyer": 5974,
    "Egg": 5975,
    "\u2581wrestl": 5976,
    "\u2581boo": 5977,
    "\u2581threatening": 5978,
    "\u2581pals": 5979,
    "\u2581impen": 5980,
    "gars": 5981,
    "\u2581Lib": 5982,
    "\u2581pigeons": 5983,
    "\u2581psalms": 5984,
    "\u2581senators": 5985,
    "\u2581Levites": 5986,
    "\u2581eagles": 5987,
    "\u2581sections": 5988,
    "\u2581stirr": 5989,
    "\u2581ruleth": 5990,
    "oming": 5991,
    "cob": 5992,
    "\u2581Timna": 5993,
    "\u2581farmers": 5994,
    "\u2581cured": 5995,
    "\u2581wounding": 5996,
    "\u2581fleeth": 5997,
    "ical": 5998,
    "\u2581lawless": 5999,
    "\u2581lu": 6000,
    "\u2581metal": 6001,
    "attered": 6002,
    "\u2581remarks": 6003,
    "RE": 6004,
    "\u2581heels": 6005,
    "\u2581nails": 6006,
    "\u2581agate": 6007,
    "\u2581meaneth": 6008,
    "\u2581vows": 6009,
    "\u2581debtors": 6010,
    "\u2581loads": 6011,
    "\u2581cards": 6012,
    "\u2581Pat": 6013,
    "\u2581deceivers": 6014,
    "\u2581tur": 6015,
    "\u2581moveth": 6016,
    "\u2581fewer": 6017,
    "\u2581scraping": 6018,
    "\u2581Please": 6019,
    "\u2581attained": 6020,
    "\u2581possessor": 6021,
    "\u2581cu": 6022,
    "\u2581envying": 6023,
    "\u2581slime": 6024,
    "traightway": 6025,
    "\u2581lowly": 6026,
    "\u2581handfuls": 6027,
    "xa": 6028,
    "\u2581falsely": 6029,
    "\u2581pants": 6030,
    "ways": 6031,
    "edent": 6032,
    "ndered": 6033,
    "\u2581k": 6034,
    "\u2581patt": 6035,
    "\u2581handled": 6036,
    "\u2581traveled": 6037,
    "\u2581understandeth": 6038,
    "\u2581doubled": 6039,
    "\u2581ruled": 6040,
    "killet": 6041,
    "\u2581bricks": 6042,
    "\u2581sepulchres": 6043,
    "\u2581scraps": 6044,
    "\u2581lions": 6045,
    "\u2581worms": 6046,
    "\u2581fastings": 6047,
    "\u2581justif": 6048,
    "\u2581pleasing": 6049,
    "\u2581livers": 6050,
    "\u2581def": 6051,
    "\u2581swinging": 6052,
    "\u2581doubting": 6053,
    "\u2581favored": 6054,
    "strain": 6055,
    "\u2581fetched": 6056,
    "\u2581seemly": 6057,
    "\u2581alike": 6058,
    "\u2581careth": 6059,
    "\u2581frie": 6060,
    "\u2581goal": 6061,
    "\u2581blades": 6062,
    "\u2581banks": 6063,
    "\u2581tales": 6064,
    "\u2581Saying": 6065,
    "\u2581spl": 6066,
    "\u2581salted": 6067,
    "\u2581rate": 6068,
    "\u2581burdened": 6069,
    "\u2581harps": 6070,
    "mal": 6071,
    "ference": 6072,
    "\u2581flowed": 6073,
    "\u2581deserted": 6074,
    "sia": 6075,
    "ronic": 6076,
    "\u2581folds": 6077,
    "\u2581traditions": 6078,
    "\u2581inv": 6079,
    "ads": 6080,
    "\u2581inwards": 6081,
    "\u2581jell": 6082,
    "\u2581rubbe": 6083,
    "changers": 6084,
    "phan": 6085,
    "\u2581beg": 6086,
    "\u2581chil": 6087,
    "\u2581piti": 6088,
    "\u2581guides": 6089,
    "\u2581figures": 6090,
    "\u2581earthquakes": 6091,
    "enness": 6092,
    "\u2581healings": 6093,
    "\u2581fightings": 6094,
    "\u2581outward": 6095,
    "zah": 6096,
    "coal": 6097,
    "\u2581dine": 6098,
    "\u2581sop": 6099,
    "\u2581posts": 6100,
    "\u2581scal": 6101,
    "\u2581chambers": 6102,
    "\u2581threads": 6103,
    "\u2581washing": 6104,
    "\u2581daze": 6105,
    "\u2581seeds": 6106,
    "\u2581playing": 6107,
    "skinned": 6108,
    "stern": 6109,
    "sea": 6110,
    "\u2581Za": 6111,
    "\u2581cases": 6112,
    "uts": 6113,
    "lax": 6114,
    "\u2581multiplying": 6115,
    "ograph": 6116,
    "\u2581revelations": 6117,
    "\u2581happens": 6118,
    "\u2581wail": 6119,
    "\u2581departing": 6120,
    "\u2581adventure": 6121,
    "\u2581pal": 6122,
    "ause": 6123,
    "\u2581caves": 6124,
    "\u2581girdles": 6125,
    "\u2581deserts": 6126,
    "bach": 6127,
    "\u2014-": 6128,
    "\u2581oppose": 6129,
    "\u2581hens": 6130,
    "\u2581cabins": 6131,
    "ittle": 6132,
    "\u2581Sea": 6133,
    "\u2581War": 6134,
    "\u2581occasional": 6135,
    "\u2581oaths": 6136,
    "\u2581snows": 6137,
    "\u2581cau": 6138,
    "oking": 6139,
    "\u2581bushe": 6140,
    "omp": 6141,
    "\u2581tribulations": 6142,
    "\u2581labors": 6143,
    "\u2581gallo": 6144,
    "raise": 6145,
    "\u2581afflictions": 6146,
    "stable": 6147,
    "uff": 6148,
    "imate": 6149,
    "\u2581Gre": 6150,
    "\u2581hearer": 6151,
    "\u2581la": 6152,
    "ium": 6153,
    "\u2581class": 6154,
    "\u2581states": 6155,
    "\u2581rightly": 6156,
    "ui": 6157,
    "\u2581blinded": 6158,
    "\u2581fasted": 6159,
    "cu": 6160,
    "lent": 6161,
    "\u2581res": 6162,
    "\u2581perfecting": 6163,
    "\u2581foundations": 6164,
    "\u2581Ab": 6165,
    "\u2581Sett": 6166,
    "oli": 6167,
    "amped": 6168,
    "\u2581breastplates": 6169,
    "rah": 6170,
    "\u2581Sh": 6171,
    "\u2581gat": 6172,
    "\u2581fr": 6173,
    "\u2581crackl": 6174,
    "\u2581Med": 6175,
    "ecting": 6176,
    "\u2581shove": 6177,
    "\u2581counsels": 6178,
    "\u2581needles": 6179,
    "\u2581Haz": 6180,
    "\u2581sorrows": 6181,
    "oned": 6182,
    "eady": 6183,
    "\u2581inte": 6184,
    "\u2581Hush": 6185,
    "\u2581Hol": 6186,
    "\u2581Hid": 6187,
    "ye": 6188,
    "\u2581famines": 6189,
    "ON": 6190,
    "\u2581Gat": 6191,
    "\u2581sel": 6192,
    "\u2581workings": 6193,
    "\u2581socia": 6194,
    "\u2581snatch": 6195,
    "yst": 6196,
    "\u2581wil": 6197,
    "\u2581persuad": 6198,
    "damn": 6199,
    "\u2581uses": 6200,
    "\u2581breaks": 6201,
    "\u2581numbers": 6202,
    "\u2581Almo": 6203,
    "Che": 6204,
    "\u2581Zi": 6205,
    "\u2581services": 6206,
    "\u2581reform": 6207,
    "\u2581weari": 6208,
    "\u2581fe": 6209,
    "\u2581crates": 6210,
    "herein": 6211,
    "MO": 6212,
    "\u2581allow": 6213,
    "\u2581uncle": 6214,
    "cord": 6215,
    "nigh": 6216,
    "arrows": 6217,
    "\u2581struggl": 6218,
    "\u2581rou": 6219,
    "\u2581admire": 6220,
    "eigne": 6221,
    "\u2581hum": 6222,
    "\u2581Ber": 6223,
    "ander": 6224,
    "B": 6225,
    "allowed": 6226,
    "\u2581gaze": 6227,
    "\u2581blackberr": 6228,
    "\u2581uneas": 6229,
    "\u2581argue": 6230,
    "ching": 6231,
    "claimed": 6232,
    "vi": 6233,
    "wist": 6234,
    "\u2581pace": 6235,
    "tended": 6236,
    "\u2581cat": 6237,
    "\u2581elevate": 6238,
    "\u2581Jac": 6239,
    "\u2581Jet": 6240,
    "empti": 6241,
    "\u2581Pen": 6242,
    "\u2581loft": 6243,
    "actic": 6244,
    "\u2581da": 6245,
    "ray": 6246,
    "\u2581sole": 6247,
    "berries": 6248,
    "\u2581mood": 6249,
    "top": 6250,
    "\u2581pat": 6251,
    "spir": 6252,
    "shell": 6253,
    "illy": 6254,
    "epho": 6255,
    "\u2581blu": 6256,
    "ock": 6257,
    "\u2581Car": 6258,
    "\u2581Command": 6259,
    "\u2581gall": 6260,
    "lashes": 6261,
    "\u2581sacr": 6262,
    "\u2581trace": 6263,
    "\u2581commo": 6264,
    "\u2581wi": 6265,
    "iles": 6266,
    "orn": 6267,
    "\u2581waxe": 6268,
    "hai": 6269,
    "came": 6270,
    "\u2581invit": 6271,
    "\u2581Jer": 6272,
    "Isn": 6273,
    "\u2581Hi": 6274,
    "\u2581tast": 6275,
    "\u2581Pu": 6276,
    "\u2581che": 6277,
    "lasses": 6278,
    "\u2581slu": 6279,
    "ud": 6280,
    "onster": 6281,
    "ame": 6282,
    "\u2581inde": 6283,
    "oved": 6284,
    "mar": 6285,
    "ows": 6286,
    "ieth": 6287,
    "\u2581contr": 6288,
    "\u2581Ri": 6289,
    "\u2581pr": 6290,
    "\u2581rehearse": 6291,
    "lids": 6292,
    "\u2581Sep": 6293,
    "rity": 6294,
    "zo": 6295,
    "ow": 6296,
    "\u2581Sou": 6297,
    "rench": 6298,
    "ncy": 6299,
    "ence": 6300,
    "igure": 6301,
    "\u2581constraine": 6302,
    "congratu": 6303,
    "oon": 6304,
    "ano": 6305,
    "\u2581rage": 6306,
    "\u2581pu": 6307,
    "met": 6308,
    "eek": 6309,
    "hew": 6310,
    "\u2581Sho": 6311,
    "nah": 6312,
    "bi": 6313,
    "tie": 6314,
    "asped": 6315,
    "\u2581Amon": 6316,
    "tening": 6317,
    "asty": 6318,
    "han": 6319,
    "\u2581considerabl": 6320,
    "vious": 6321,
    "zens": 6322,
    "\u2581strok": 6323,
    "husks": 6324,
    "loo": 6325,
    "\u2581spat": 6326,
    "\u2581rais": 6327,
    "To": 6328,
    "\u2581scra": 6329,
    "\u2581port": 6330,
    "\u2581wag": 6331,
    "ace": 6332,
    "\u2581rec": 6333,
    "mbled": 6334,
    "\u2581actual": 6335,
    "\u2581troubl": 6336,
    "rie": 6337,
    "awfully": 6338,
    "ench": 6339,
    "laus": 6340,
    "rable": 6341,
    "\u2581chal": 6342,
    "\u2581Om": 6343,
    "ron": 6344,
    "cial": 6345,
    "roth": 6346,
    "\u2581li": 6347,
    "\u2581divid": 6348,
    "P": 6349,
    "\u2581stripe": 6350,
    "ER": 6351,
    "any": 6352,
    "obably": 6353,
    "giver": 6354,
    "\u2581plo": 6355,
    "amo": 6356,
    "oiled": 6357,
    "amia": 6358,
    "TH": 6359,
    "ivity": 6360,
    "wish": 6361,
    "E": 6362,
    "self": 6363,
    "nger": 6364,
    "\u2581attendan": 6365,
    "\u2581slim": 6366,
    "\u2581ston": 6367,
    "ging": 6368,
    "itable": 6369,
    "AR": 6370,
    "ib": 6371,
    "minate": 6372,
    "sided": 6373,
    "\u2581magn": 6374,
    "\u2581rob": 6375,
    "\u2581companion": 6376,
    "inch": 6377,
    "Hey": 6378,
    "icles": 6379,
    "j": 6380,
    "ounding": 6381,
    "headed": 6382,
    "never": 6383,
    "\u2581impe": 6384,
    "\u2581Tra": 6385,
    "mobil": 6386,
    "\u2581arch": 6387,
    "struction": 6388,
    "\u2581slap": 6389,
    "ips": 6390,
    "\u2581wrap": 6391,
    "him": 6392,
    "\u2581Tim": 6393,
    "\u2581bite": 6394,
    "\u2581horn": 6395,
    "\u2581convi": 6396,
    "\u2581complain": 6397,
    "\u2581impo": 6398,
    "oving": 6399,
    "\u2581scorpion": 6400,
    "\u2581elbow": 6401,
    "\u2581poplar": 6402,
    "\u2581apron": 6403,
    "\u2581impla": 6404,
    "\u2581hillside": 6405,
    "\u2581sorcerer": 6406,
    "\u2581anchor": 6407,
    "\u2581feature": 6408,
    "use": 6409,
    "\u2581bason": 6410,
    "\u2581slope": 6411,
    "\u2581physician": 6412,
    "\u2581Sanct": 6413,
    "\u2581strand": 6414,
    "\u2581warrior": 6415,
    "hereabouts": 6416,
    "\u2581highway": 6417,
    "\u2581idolater": 6418,
    "\u2581locust": 6419,
    "\u2581payment": 6420,
    "\u2581speci": 6421,
    "\u2581tithe": 6422,
    "orry": 6423,
    "\u2581selve": 6424,
    "\u2581hypocrite": 6425,
    "\u2581robber": 6426,
    "\u2581tare": 6427,
    "\u2581observ": 6428,
    "\u2581thorn": 6429,
    "\u2581tran": 6430,
    "\u2581sigh": 6431,
    "\u2581mil": 6432,
    "\u2581revile": 6433,
    "agger": 6434,
    "jected": 6435,
    "continu": 6436,
    "rag": 6437,
    "citizen": 6438,
    "Wash": 6439,
    "uncle": 6440,
    "corn": 6441,
    "source": 6442,
    "pathetic": 6443,
    "tions": 6444,
    "\u2581excus": 6445,
    "handled": 6446,
    "draft": 6447,
    "float": 6448,
    "stalk": 6449,
    "AN": 6450,
    "limb": 6451,
    "block": 6452,
    "Summ": 6453,
    "hog": 6454,
    "Never": 6455,
    "\u2581pierc": 6456,
    "\u2581bro": 6457,
    "\u2581persecut": 6458,
    "gird": 6459,
    "box": 6460,
    "stedfast": 6461,
    "Watch": 6462,
    "cloth": 6463,
    "\u2581sid": 6464,
    "None": 6465,
    "search": 6466,
    "Seven": 6467,
    "Get": 6468,
    "Henry": 6469,
    "keeper": 6470,
    "soldier": 6471,
    "J": 6472,
    "Perhaps": 6473,
    "shekel": 6474,
    "fields": 6475,
    "ounted": 6476,
    "shot": 6477,
    "kindness": 6478,
    "condemned": 6479,
    "Homer": 6480,
    "\u2581whistl": 6481,
    "please": 6482,
    "Hur": 6483,
    "horse": 6484,
    "witnesses": 6485,
    "pleasure": 6486,
    "bade": 6487,
    "spread": 6488,
    "Give": 6489,
    "bush": 6490,
    "friend": 6491,
    "myself": 6492,
    "Lurvy": 6493,
    "wheel": 6494,
    "perfect": 6495,
    "With": 6496,
    "room": 6497,
    "pans": 6498,
    "generation": 6499,
    "while": 6500,
    "burnt": 6501,
    "nothing": 6502,
    "knowledge": 6503,
    "\u2581reject": 6504,
    "push": 6505,
    "aa": 6506,
    "\u2581dismiss": 6507,
    "dad": 6508,
    "serve": 6509,
    "coat": 6510,
    "\u2581Gi": 6511,
    "One": 6512,
    "whe": 6513,
    "trap": 6514,
    "sail": 6515,
    "\u2581thresh": 6516,
    "\u2581lum": 6517,
    "green": 6518,
    "ertainly": 6519,
    "Say": 6520,
    "place": 6521,
    "\u2581confound": 6522,
    "\u2581hallow": 6523,
    "\u2581gainsay": 6524,
    "\u2581signify": 6525,
    "\u2581edify": 6526,
    "\u2581vanish": 6527,
    "eeches": 6528,
    "only": 6529,
    "\u2581explain": 6530,
    "\u2581kno": 6531,
    "\u2581vex": 6532,
    "\u2581sniff": 6533,
    "\u2581repeat": 6534,
    "\u2581exceed": 6535,
    "\u2581chuckl": 6536,
    "\u2581ordain": 6537,
    "\u2581grabb": 6538,
    "bond": 6539,
    "\u2581threat": 6540,
    "\u2581flam": 6541,
    "Put": 6542,
    "\u2581amaz": 6543,
    "See": 6544,
    "pri": 6545,
    "portion": 6546,
    "\u2581laborer": 6547,
    "lead": 6548,
    "\u2581citizen": 6549,
    "seeing": 6550,
    "\u2581shear": 6551,
    "\u2581ta": 6552,
    "\u2581plea": 6553,
    "Wa": 6554,
    "oasty": 6555,
    "nything": 6556,
    "\u2581App": 6557,
    "made": 6558,
    "\u2581tame": 6559,
    "\u2581boot": 6560,
    "\u2581testifie": 6561,
    "run": 6562,
    "\u2581Exp": 6563,
    "\u2581create": 6564,
    "\u2581boar": 6565,
    "\u2581Israelite": 6566,
    "tant": 6567,
    "olved": 6568,
    "\u2581flourish": 6569,
    "hod": 6570,
    "\u2581continual": 6571,
    "\u2581genealog": 6572,
    "\u2581sudden": 6573,
    "sparag": 6574,
    "ufficien": 6575,
    "oldiers": 6576,
    "\u2581dizz": 6577,
    "\u2581choos": 6578,
    "trong": 6579,
    "\u2581filth": 6580,
    "\u2581snar": 6581,
    "\u2581reconcile": 6582,
    "\u2581communicat": 6583,
    "\u2581memor": 6584,
    "\u2581twent": 6585,
    "phos": 6586,
    "hould": 6587,
    "angel": 6588,
    "\u2581distinct": 6589,
    "bur": 6590,
    "ification": 6591,
    "\u2581Amra": 6592,
    "\u2581import": 6593,
    "\u2581mir": 6594,
    "\u2581merci": 6595,
    "path": 6596,
    "\u2581persuasi": 6597,
    "\u2581tee": 6598,
    "\u2581Mattha": 6599,
    "\u2581appro": 6600,
    "aradise": 6601,
    "aughter": 6602,
    "neys": 6603,
    "\u2581attract": 6604,
    "\u2581Govern": 6605,
    "\u2581situat": 6606,
    "\u2581stubb": 6607,
    "\u2581subtil": 6608,
    "\u2581habit": 6609,
    "\u2581abomina": 6610,
    "\u2581pouch": 6611,
    "ecomposers": 6612,
    "estroy": 6613,
    "ntreat": 6614,
    "attering": 6615,
    "xcellent": 6616,
    "ontrary": 6617,
    "ontinue": 6618,
    "\u2581gloom": 6619,
    "venture": 6620,
    "urmur": 6621,
    "ilbur": 6622,
    "epart": 6623,
    "istened": 6624,
    "\u2581Apoll": 6625,
    "\u2581excel": 6626,
    "\u2581Ponti": 6627,
    "\u2581esp": 6628,
    "arvel": 6629,
    "\u2581succ": 6630,
    "rink": 6631,
    "\u2581bureau": 6632,
    "\u2581employ": 6633,
    "\u2581scru": 6634,
    "\u2581August": 6635,
    "\u2581Nico": 6636,
    "\u2581centipede": 6637,
    "\u2581executi": 6638,
    "\u2581expense": 6639,
    "\u2581frail": 6640,
    "\u2581grasshopper": 6641,
    "\u2581happie": 6642,
    "\u2581revelling": 6643,
    "\u2581skelet": 6644,
    "\u2581traitor": 6645,
    "\u2581victual": 6646,
    "Crunchy": 6647,
    "Phoebe": 6648,
    "Slowly": 6649,
    "bulus": 6650,
    "cian": 6651,
    "consequen": 6652,
    "continency": 6653,
    "gullible": 6654,
    "hippoorwill": 6655,
    "languish": 6656,
    "mphas": 6657,
    "olog": 6658,
    "petitions": 6659,
    "roduction": 6660,
    "significan": 6661,
    "zziel": 6662,
    "\u2581Agabus": 6663,
    "\u2581Areopag": 6664,
    "\u2581Assyria": 6665,
    "\u2581Baal": 6666,
    "\u2581Baalzephon": 6667,
    "\u2581Babel": 6668,
    "\u2581Baptizer": 6669,
    "\u2581Beautiful": 6670,
    "\u2581Beroea": 6671,
    "\u2581Bigfish": 6672,
    "\u2581Bithynia": 6673,
    "\u2581Carmi": 6674,
    "\u2581Circumcision": 6675,
    "\u2581Cotton": 6676,
    "\u2581Cowee": 6677,
    "\u2581Crispus": 6678,
    "\u2581Crucify": 6679,
    "\u2581Dalma": 6680,
    "\u2581Dorcas": 6681,
    "\u2581Ellasar": 6682,
    "\u2581Epaphroditus": 6683,
    "\u2581Florida": 6684,
    "\u2581Fulfil": 6685,
    "\u2581Gabriel": 6686,
    "\u2581Gerasenes": 6687,
    "\u2581Gershom": 6688,
    "\u2581Gethsemane": 6689,
    "\u2581Girgas": 6690,
    "\u2581Increase": 6691,
    "\u2581Izhar": 6692,
    "\u2581Jehoshaphat": 6693,
    "\u2581Jokshan": 6694,
    "\u2581Joram": 6695,
    "\u2581Lebanon": 6696,
    "\u2581Lydda": 6697,
    "\u2581Lydia": 6698,
    "\u2581Mattath": 6699,
    "\u2581Matthias": 6700,
    "\u2581Mehujael": 6701,
    "\u2581Melchi": 6702,
    "\u2581Methusael": 6703,
    "\u2581Millipede": 6704,
    "\u2581Nimrod": 6705,
    "\u2581Nineveh": 6706,
    "\u2581Onesiphorus": 6707,
    "\u2581Pergamum": 6708,
    "\u2581Phoeni": 6709,
    "\u2581Pisidia": 6710,
    "\u2581Potomac": 6711,
    "\u2581Prophesy": 6712,
    "\u2581Publius": 6713,
    "\u2581Rabboni": 6714,
    "\u2581Radiant": 6715,
    "\u2581Rahab": 6716,
    "\u2581Rameses": 6717,
    "\u2581Rephaims": 6718,
    "\u2581Rufus": 6719,
    "\u2581Sabaoth": 6720,
    "\u2581Sacrifice": 6721,
    "\u2581Salome": 6722,
    "\u2581School": 6723,
    "\u2581Search": 6724,
    "\u2581Seba": 6725,
    "\u2581Secret": 6726,
    "\u2581Shaveh": 6727,
    "\u2581Siloam": 6728,
    "\u2581Smyrna": 6729,
    "\u2581Sosthenes": 6730,
    "\u2581Squirrel": 6731,
    "\u2581Supreme": 6732,
    "\u2581Tavern": 6733,
    "\u2581Theophilus": 6734,
    "\u2581Thessalonians": 6735,
    "\u2581Tubalcain": 6736,
    "\u2581Zachariah": 6737,
    "\u2581Zerubbabel": 6738,
    "\u2581absolute": 6739,
    "\u2581acquired": 6740,
    "\u2581advise": 6741,
    "\u2581ammunition": 6742,
    "\u2581apothecary": 6743,
    "\u2581appetizing": 6744,
    "\u2581apprehend": 6745,
    "\u2581armpits": 6746,
    "\u2581assumption": 6747,
    "\u2581beefsteak": 6748,
    "\u2581bison": 6749,
    "\u2581bomb": 6750,
    "\u2581boulder": 6751,
    "\u2581brilliant": 6752,
    "\u2581burial": 6753,
    "\u2581busybodies": 6754,
    "\u2581calico": 6755,
    "\u2581clamor": 6756,
    "\u2581companies": 6757,
    "\u2581compound": 6758,
    "\u2581conspiracy": 6759,
    "\u2581convocation": 6760,
    "\u2581cornbread": 6761,
    "\u2581craftsmen": 6762,
    "\u2581crawfish": 6763,
    "\u2581cumber": 6764,
    "\u2581delusion": 6765,
    "\u2581denarius": 6766,
    "\u2581detail": 6767,
    "\u2581dictionary": 6768,
    "\u2581disannul": 6769,
    "\u2581discarded": 6770,
    "\u2581divorcement": 6771,
    "\u2581doorframes": 6772,
    "\u2581downstream": 6773,
    "\u2581elaborate": 6774,
    "\u2581eloquent": 6775,
    "\u2581emperor": 6776,
    "\u2581enact": 6777,
    "\u2581evangelist": 6778,
    "\u2581experiment": 6779,
    "\u2581extreme": 6780,
    "\u2581fatfleshed": 6781,
    "\u2581fathoms": 6782,
    "\u2581foreknew": 6783,
    "\u2581fullgrown": 6784,
    "\u2581fumbling": 6785,
    "\u2581futile": 6786,
    "\u2581garner": 6787,
    "\u2581gleam": 6788,
    "\u2581goddess": 6789,
    "\u2581gravy": 6790,
    "\u2581grisled": 6791,
    "\u2581gulped": 6792,
    "\u2581gutted": 6793,
    "\u2581gutters": 6794,
    "\u2581happiness": 6795,
    "\u2581hominy": 6796,
    "\u2581humiliation": 6797,
    "\u2581immutab": 6798,
    "\u2581implements": 6799,
    "\u2581inconvenient": 6800,
    "\u2581infield": 6801,
    "\u2581influen": 6802,
    "\u2581ingathering": 6803,
    "\u2581interlude": 6804,
    "\u2581kinswoman": 6805,
    "\u2581kneadingtroughs": 6806,
    "\u2581lamentation": 6807,
    "\u2581lantern": 6808,
    "\u2581leisure": 6809,
    "\u2581lintel": 6810,
    "\u2581material": 6811,
    "\u2581medicine": 6812,
    "\u2581millipedes": 6813,
    "\u2581moccasins": 6814,
    "\u2581mudflat": 6815,
    "\u2581muzzle": 6816,
    "\u2581nerve": 6817,
    "\u2581nipple": 6818,
    "\u2581oysters": 6819,
    "\u2581pellets": 6820,
    "\u2581penknife": 6821,
    "\u2581pollut": 6822,
    "\u2581porcupine": 6823,
    "\u2581portrait": 6824,
    "\u2581preeminence": 6825,
    "\u2581prejudice": 6826,
    "\u2581preparing": 6827,
    "\u2581presumptuous": 6828,
    "\u2581problem": 6829,
    "\u2581promptly": 6830,
    "\u2581provocation": 6831,
    "\u2581rabble": 6832,
    "\u2581rapid": 6833,
    "\u2581religious": 6834,
    "\u2581renounce": 6835,
    "\u2581restraineth": 6836,
    "\u2581ridiculous": 6837,
    "\u2581rigour": 6838,
    "\u2581roost": 6839,
    "\u2581sandwich": 6840,
    "\u2581scruples": 6841,
    "\u2581slog": 6842,
    "\u2581slothful": 6843,
    "\u2581smiling": 6844,
    "\u2581sobriety": 6845,
    "\u2581sorceries": 6846,
    "\u2581sorcery": 6847,
    "\u2581stimulate": 6848,
    "\u2581stupor": 6849,
    "\u2581subdue": 6850,
    "\u2581suffice": 6851,
    "\u2581sumptuous": 6852,
    "\u2581supreme": 6853,
    "\u2581survival": 6854,
    "\u2581television": 6855,
    "\u2581terrestrial": 6856,
    "\u2581theoretical": 6857,
    "\u2581thereafter": 6858,
    "\u2581thirteen": 6859,
    "\u2581thistledown": 6860,
    "\u2581timbrel": 6861,
    "\u2581tomatoes": 6862,
    "\u2581traffic": 6863,
    "\u2581trample": 6864,
    "\u2581tremen": 6865,
    "\u2581trinket": 6866,
    "\u2581unaccountabl": 6867,
    "\u2581unfair": 6868,
    "\u2581univers": 6869,
    "\u2581unruly": 6870,
    "\u2581unthankful": 6871,
    "\u2581unwashen": 6872,
    "\u2581vesture": 6873,
    "\u2581vicinity": 6874,
    "\u2581victim": 6875,
    "\u2581woodpile": 6876,
    "\u2581wrinkle": 6877,
    "\u2581yawned": 6878,
    "\u2581zero": 6879,
    "\u2581Death": 6880,
    "acinth": 6881,
    "shrunk": 6882,
    "ummim": 6883,
    "\u2581Ancih": 6884,
    "\u2581Antipa": 6885,
    "\u2581Frankl": 6886,
    "\u2581Jenny": 6887,
    "\u2581Malch": 6888,
    "\u2581Mississippi": 6889,
    "\u2581accommodat": 6890,
    "\u2581altercat": 6891,
    "\u2581calculat": 6892,
    "\u2581clown": 6893,
    "\u2581clutter": 6894,
    "\u2581copy": 6895,
    "\u2581cripple": 6896,
    "\u2581expanse": 6897,
    "\u2581flags": 6898,
    "\u2581gabbl": 6899,
    "\u2581grove": 6900,
    "\u2581license": 6901,
    "\u2581lilies": 6902,
    "\u2581magnificen": 6903,
    "\u2581morter": 6904,
    "\u2581pastille": 6905,
    "\u2581plaster": 6906,
    "\u2581ribbon": 6907,
    "\u2581snuffdishes": 6908,
    "\u2581surmis": 6909,
    "\u2581terms": 6910,
    "ietly": 6911,
    "\u2581Jann": 6912,
    "\u2581assault": 6913,
    "\u2581chryso": 6914,
    "\u2581crafty": 6915,
    "\u2581delud": 6916,
    "\u2581drool": 6917,
    "\u2581grandfather": 6918,
    "\u2581humility": 6919,
    "\u2581lamented": 6920,
    "\u2581lungs": 6921,
    "\u2581mankind": 6922,
    "\u2581narrat": 6923,
    "\u2581negotiat": 6924,
    "\u2581risk": 6925,
    "\u2581smack": 6926,
    "\u2581soothsay": 6927,
    "\u2581spark": 6928,
    "\u2581squeal": 6929,
    "\u2581stove": 6930,
    "\u2581twirl": 6931,
    "\u2581unsettle": 6932,
    "\u2581whicker": 6933,
    "\u2581withdraw": 6934,
    "\u2581Earth": 6935,
    "\u2581Towers": 6936,
    "\u2581circuit": 6937,
    "\u2581expert": 6938,
    "\u2581foaming": 6939,
    "\u2581ignore": 6940,
    "\u2581wobbl": 6941,
    "\u2581beho": 6942,
    "\u2581garnish": 6943,
    "xtort": 6944,
    "\u2581Galeed": 6945,
    "\u2581Sabt": 6946,
    "\u2581basketfuls": 6947,
    "\u2581daddy": 6948,
    "\u2581fragran": 6949,
    "\u2581motor": 6950,
    "\u2581napkin": 6951,
    "\u2581scourging": 6952,
    "\u2581surpass": 6953,
    "versatile": 6954,
    "\u2581balance": 6955,
    "\u2581glid": 6956,
    "\u2581overflow": 6957,
    "\u2581suspicio": 6958,
    "spouts": 6959,
    "\u2581dazzling": 6960,
    "\u2581effectual": 6961,
    "\u2581initial": 6962,
    "\u2581opus": 6963,
    "\u2581waistcoat": 6964,
    "\u2581hobbl": 6965,
    "\u2581numer": 6966,
    "\u2581purification": 6967,
    "\u2581Joanna": 6968,
    "\u2581dragline": 6969,
    "\u2581runneth": 6970,
    "\u2581Hirah": 6971,
    "\u2581assessment": 6972,
    "\u2581loathe": 6973,
    "\u2581superlative": 6974,
    "\u2581Pontiac": 6975,
    "\u2581persistent": 6976,
    "\u2581uphill": 6977,
    "\u2581Amoz": 6978,
    "\u2581rude": 6979,
    "ilacs": 6980,
    "\u2581approached": 6981,
    "\u2581billows": 6982,
    "\u2581globe": 6983,
    "\u2581oink": 6984,
    "\u2581option": 6985,
    "\u2581rescue": 6986,
    "\u2581balm": 6987,
    "\u2581councillor": 6988,
    "\u2581frying": 6989,
    "\u2581hazard": 6990,
    "\u2581nursing": 6991,
    "\u2581shiver": 6992,
    "\u2581Josiah": 6993,
    "\u2581enchant": 6994,
    "\u2581sentiment": 6995,
    "\u2581ambassage": 6996,
    "\u2581filthiness": 6997,
    "\u2581forefather": 6998,
    "\u2581consist": 6999,
    "\u2581eventide": 7000,
    "\u2581grandson": 7001,
    "\u2581reclin": 7002,
    "pproximately": 7003,
    "\u2581dignities": 7004,
    "\u2581peaks": 7005,
    "\u2581Slug": 7006,
    "\u2581furious": 7007,
    "\u2581stroll": 7008,
    "\u2581superfluity": 7009,
    "\u2581Raamah": 7010,
    "\u2581aloft": 7011,
    "\u2581divinity": 7012,
    "\u2581slats": 7013,
    "\u2581caution": 7014,
    "\u2581pride": 7015,
    "\u2581cautiously": 7016,
    "\u2581ginger": 7017,
    "\u2581splash": 7018,
    "\u2581Doctor": 7019,
    "\u2581appeti": 7020,
    "\u2581babblings": 7021,
    "\u2581befitting": 7022,
    "\u2581leasing": 7023,
    "\u2581precede": 7024,
    "\u2581welfare": 7025,
    "\u2581outfit": 7026,
    "\u2581spoonful": 7027,
    "\u2581bacteria": 7028,
    "\u2581uniform": 7029,
    "azin": 7030,
    "\u2581Corinthians": 7031,
    "\u2581usury": 7032,
    "\u2581display": 7033,
    "\u2581salon": 7034,
    "\u2581battle": 7035,
    "\u2581turtle": 7036,
    "\u2581vomit": 7037,
    "substan": 7038,
    "\u2581manger": 7039,
    "\u2581Calah": 7040,
    "\u2581exhal": 7041,
    "\u2581stanched": 7042,
    "\u2581vaunt": 7043,
    "\u2581chaise": 7044,
    "\u2581translat": 7045,
    "\u2581britches": 7046,
    "\u2581guiltless": 7047,
    "\u2581owl": 7048,
    "\u2581travers": 7049,
    "\u2581Salem": 7050,
    "\u2581fuss": 7051,
    "\u2581acquaintance": 7052,
    "\u2581Gaza": 7053,
    "\u2581Mizraim": 7054,
    "\u2581allotted": 7055,
    "\u2581soaked": 7056,
    "\u2581primar": 7057,
    "\u2581suet": 7058,
    "\u2581droop": 7059,
    "\u2581clash": 7060,
    "\u2581gloomily": 7061,
    "\u2581vouch": 7062,
    "\u2581Rhod": 7063,
    "\u2581decay": 7064,
    "\u2581dripping": 7065,
    "\u2581loyal": 7066,
    "\u2581Julius": 7067,
    "\u2581enforc": 7068,
    "\u2581partiality": 7069,
    "Meeting": 7070,
    "\u2581eaves": 7071,
    "\u2581enrolment": 7072,
    "\u2581kidding": 7073,
    "tude": 7074,
    "\u2581popover": 7075,
    "\u2581laz": 7076,
    "\u2581legitima": 7077,
    "\u2581Tert": 7078,
    "\u2581Claudius": 7079,
    "\u2581poet": 7080,
    "\u2581flake": 7081,
    "\u2581streak": 7082,
    "Nice": 7083,
    "sabba": 7084,
    "\u2581okay": 7085,
    "\u2581tube": 7086,
    "\u2581cinder": 7087,
    "\u2581railhead": 7088,
    "\u2581anti": 7089,
    "NK": 7090,
    "\u2581Jeze": 7091,
    "\u2581Poor": 7092,
    "\u2581pulse": 7093,
    "churn": 7094,
    "jah": 7095,
    "\u2581Javan": 7096,
    "\u2581Lud": 7097,
    "\u2581subtilty": 7098,
    "\u2581Job": 7099,
    "agic": 7100,
    "\u2581whale": 7101,
    "\u2581factious": 7102,
    "\u2581blunt": 7103,
    "\u2581edified": 7104,
    "iggled": 7105,
    "\u2581decade": 7106,
    "tenance": 7107,
    "\u2581Maha": 7108,
    "\u2581hammer": 7109,
    "\u2581rhythmic": 7110,
    "\u2581Kid": 7111,
    "\u2581concourse": 7112,
    "bited": 7113,
    "zzling": 7114,
    "\u2581Zac": 7115,
    "\u2581earshot": 7116,
    "\u2581coco": 7117,
    "\u2581hencefor": 7118,
    "\u2581Dead": 7119,
    "\u2581horseback": 7120,
    "\u2581kin": 7121,
    "\u2581Teach": 7122,
    "\u2581oilcloth": 7123,
    "\u2581Elisha": 7124,
    "\u2581Padanaram": 7125,
    "\u2581spectac": 7126,
    "\u2581sheath": 7127,
    "\u2581severity": 7128,
    "\u2581embroiderer": 7129,
    "\u2581Naaman": 7130,
    "\u2581impu": 7131,
    "\u2581stew": 7132,
    "\u2581recall": 7133,
    "\u2581flute": 7134,
    "\u2581ownership": 7135,
    "\u2581Irad": 7136,
    "\u2581ancest": 7137,
    "\u2581suggestions": 7138,
    "bia": 7139,
    "ember": 7140,
    "bula": 7141,
    "\u2581foreship": 7142,
    "\u2581Massa": 7143,
    "\u2581Lyc": 7144,
    "\u2581Carry": 7145,
    "\u2581persuasive": 7146,
    "\u2581rig": 7147,
    "\u2581tripod": 7148,
    "urvey": 7149,
    "\u2581instant": 7150,
    "\u2581Merc": 7151,
    "\u2581trump": 7152,
    "\u2581trench": 7153,
    "\u2581Edomites": 7154,
    "hites": 7155,
    "\u2581meditation": 7156,
    "\u2581detest": 7157,
    "\u2581thankfulness": 7158,
    "enser": 7159,
    "\u2581calam": 7160,
    "\u2581Beersheba": 7161,
    "AT": 7162,
    "\u2581tackl": 7163,
    "\u2581Bridge": 7164,
    "\u2581cookery": 7165,
    "\u2581piss": 7166,
    "osity": 7167,
    "\u2581scalp": 7168,
    "\u2581wavering": 7169,
    "\u2581rebel": 7170,
    "\u2581missionar": 7171,
    "\u2581eff": 7172,
    "\u2581removal": 7173,
    "\u2581drear": 7174,
    "\u2581Kir": 7175,
    "\u2581wakeful": 7176,
    "\u2581Kar": 7177,
    "\u2581partial": 7178,
    "\u2581grid": 7179,
    "\u2581justifieth": 7180,
    "\u2581speedily": 7181,
    "\u2581beget": 7182,
    "erceive": 7183,
    "\u2581variance": 7184,
    "cade": 7185,
    "egion": 7186,
    "\u2581expression": 7187,
    "\u2581cruelty": 7188,
    "\u2581Naph": 7189,
    "\u2581pomp": 7190,
    "\u2581Hog": 7191,
    "Easy": 7192,
    "\u2581thunderings": 7193,
    "\u2581riotous": 7194,
    "\u2581history": 7195,
    "\u2581transit": 7196,
    "\u2581funny": 7197,
    "\u2581theatre": 7198,
    "\u2581confirmation": 7199,
    "\u2581roadway": 7200,
    "\u2581boyhood": 7201,
    "\u2581Hermon": 7202,
    "\u2581mineral": 7203,
    "naim": 7204,
    "\u2581fuck": 7205,
    "\u2581Hori": 7206,
    "\u2581bondmen": 7207,
    "\u2581rocket": 7208,
    "\u2581policy": 7209,
    "\u2581unholy": 7210,
    "\u2581unseemly": 7211,
    "nkle": 7212,
    "\u2581gallery": 7213,
    "apolis": 7214,
    "\u2581wavered": 7215,
    "\u2581encourage": 7216,
    "\u2581phoe": 7217,
    "\u2581hop": 7218,
    "\u2581alternate": 7219,
    "\u2581Beriah": 7220,
    "\u2581wariness": 7221,
    "\u2581State": 7222,
    "\u2581skirmish": 7223,
    "\u2581Aram": 7224,
    "\u2581parings": 7225,
    "\u2581cling": 7226,
    "\u2581Matthan": 7227,
    "ndron": 7228,
    "\u2581Bow": 7229,
    "\u2581axle": 7230,
    "polis": 7231,
    "ilver": 7232,
    "\u2581nea": 7233,
    "ccent": 7234,
    "\u2581Lie": 7235,
    "\u2581carrie": 7236,
    "\u2581sparingly": 7237,
    "\u2581politely": 7238,
    "\u2581similarly": 7239,
    "nnels": 7240,
    "\u2581doubleminded": 7241,
    "\u2581wrongfully": 7242,
    "\u2581Shim": 7243,
    "\u2581noisy": 7244,
    "ulation": 7245,
    "gage": 7246,
    "\u2581bump": 7247,
    "\u2581suppertime": 7248,
    "\u2581arising": 7249,
    "guiltiness": 7250,
    "abies": 7251,
    "\u2581alongside": 7252,
    "\u2581dough": 7253,
    "uda": 7254,
    "ddling": 7255,
    "onia": 7256,
    "\u2581acceptation": 7257,
    "\u2581grand": 7258,
    "\u2581Hadar": 7259,
    "\u2581Onesi": 7260,
    "\u2581chaste": 7261,
    "\u2581promi": 7262,
    "eously": 7263,
    "\u2581rill": 7264,
    "\u2581fitting": 7265,
    "acter": 7266,
    "\u2581crunch": 7267,
    "\u2581crust": 7268,
    "\u2581gentleness": 7269,
    "\u2581Rhe": 7270,
    "\u2581gum": 7271,
    "\u2581lam": 7272,
    "\u2581mockers": 7273,
    "\u2581hitherto": 7274,
    "\u2581eag": 7275,
    "\u2581collapsed": 7276,
    "\u2581disbelieved": 7277,
    "\u2581scabb": 7278,
    "\u2581confi": 7279,
    "\u2581surre": 7280,
    "\u2581hello": 7281,
    "\u2581Jah": 7282,
    "\u2581attachment": 7283,
    "\u2581boxes": 7284,
    "\u2581china": 7285,
    "\u2581identi": 7286,
    "\u2581thankful": 7287,
    "\u2581Tab": 7288,
    "oper": 7289,
    "\u2581stings": 7290,
    "\u2581attraction": 7291,
    "\u2581Tryph": 7292,
    "\u2581freeman": 7293,
    "\u2581genealogy": 7294,
    "\u2581bull": 7295,
    "\u2581tighten": 7296,
    "\u2581team": 7297,
    "\u2581shaven": 7298,
    "\u2581Gomer": 7299,
    "\u2581mire": 7300,
    "lene": 7301,
    "\u2581fearfulness": 7302,
    "\u2581gorgeous": 7303,
    "riah": 7304,
    "\u2581fume": 7305,
    "geon": 7306,
    "\u2581honest": 7307,
    "\u2581seduc": 7308,
    "\u2581homeland": 7309,
    "\u2581incl": 7310,
    "\u2581tones": 7311,
    "\u2581station": 7312,
    "\u2581approvedness": 7313,
    "\u2581earnestness": 7314,
    "\u2581normal": 7315,
    "\u2581alo": 7316,
    "\u2581Cover": 7317,
    "\u2581agent": 7318,
    "\u2581flourisheth": 7319,
    "chant": 7320,
    "\u2581pew": 7321,
    "\u2581soberness": 7322,
    "pilled": 7323,
    "\u2581bedtime": 7324,
    "\u2581backbone": 7325,
    "educ": 7326,
    "horus": 7327,
    "\u2581Ken": 7328,
    "retty": 7329,
    "rubs": 7330,
    "Are": 7331,
    "rged": 7332,
    "\u2581reconcil": 7333,
    "\u2581assist": 7334,
    "\u2581foes": 7335,
    "\u2581chast": 7336,
    "\u2581dau": 7337,
    "\u2581scare": 7338,
    "\u2581ledge": 7339,
    "cientist": 7340,
    "\u2581dreamily": 7341,
    "\u2581belonging": 7342,
    "\u2581embalmed": 7343,
    "\u2581drowned": 7344,
    "\u2581hesitated": 7345,
    "\u2581butchered": 7346,
    "orci": 7347,
    "\u2581underwear": 7348,
    "\u2581cobbler": 7349,
    "\u2581Mish": 7350,
    "voca": 7351,
    "Goodness": 7352,
    "isc": 7353,
    "\u2581gloriest": 7354,
    "\u2581Near": 7355,
    "\u2581meta": 7356,
    "\u2581Apple": 7357,
    "\u2581sym": 7358,
    "\u2581delicately": 7359,
    "\u2581meekly": 7360,
    "\u2581laughter": 7361,
    "\u2581tamed": 7362,
    "\u2581chasteneth": 7363,
    "\u2581flapped": 7364,
    "\u2581Elim": 7365,
    "\u2581dealings": 7366,
    "\u2581acquaint": 7367,
    "\u2581Mib": 7368,
    "\u2581tailor": 7369,
    "\u2581blaze": 7370,
    "\u2581familiar": 7371,
    "\u2581ordinary": 7372,
    "\u2581wreck": 7373,
    "amous": 7374,
    "\u2581Wind": 7375,
    "\u2581cure": 7376,
    "eneration": 7377,
    "\u2581thump": 7378,
    "\u2581Fight": 7379,
    "anim": 7380,
    "\u2581firelight": 7381,
    "\u2581defende": 7382,
    "\u2581Majest": 7383,
    "\u2581watchful": 7384,
    "\u2581overboard": 7385,
    "bsolution": 7386,
    "allel": 7387,
    "\u2581Obe": 7388,
    "\u2581saddle": 7389,
    "luc": 7390,
    "affl": 7391,
    "\u2581worshippeth": 7392,
    "oic": 7393,
    "arge": 7394,
    "blossom": 7395,
    "\u2581generally": 7396,
    "\u2581sunris": 7397,
    "\u2581ruff": 7398,
    "yway": 7399,
    "rban": 7400,
    "\u2581joyfully": 7401,
    "rsel": 7402,
    "\u2581lightened": 7403,
    "\u2581striker": 7404,
    "Avery": 7405,
    "anging": 7406,
    "\u2581unity": 7407,
    "\u2581perfection": 7408,
    "willing": 7409,
    "\u2581copies": 7410,
    "\u2581endeavors": 7411,
    "\u2581feathers": 7412,
    "\u2581morals": 7413,
    "\u2581palaces": 7414,
    "\u2581politics": 7415,
    "\u2581proselytes": 7416,
    "\u2581symbols": 7417,
    "eyond": 7418,
    "\u2581convers": 7419,
    "\u2581Mana": 7420,
    "\u2581rambl": 7421,
    "siah": 7422,
    "hepherd": 7423,
    "\u2581Alexandrian": 7424,
    "\u2581mites": 7425,
    "\u2581bored": 7426,
    "ighteous": 7427,
    "\u2581Boy": 7428,
    "\u2581scour": 7429,
    "\u2581unbeliever": 7430,
    "\u2581thereupon": 7431,
    "sorry": 7432,
    "esis": 7433,
    "\u2581penny": 7434,
    "planted": 7435,
    "\u2581fisherm": 7436,
    "jack": 7437,
    "\u2581decrease": 7438,
    "\u2581cult": 7439,
    "\u2581assuredly": 7440,
    "\u2581gloriously": 7441,
    "col": 7442,
    "\u2581scattereth": 7443,
    "\u2581licked": 7444,
    "\u2581dismissed": 7445,
    "\u2581carcase": 7446,
    "\u2581drunkard": 7447,
    "\u2581complained": 7448,
    "\u2581reviler": 7449,
    "\u2581lackest": 7450,
    "\u2581whistling": 7451,
    "\u2581contem": 7452,
    "burger": 7453,
    "\u2581complaining": 7454,
    "\u2581mom": 7455,
    "\u2581Had": 7456,
    "inter": 7457,
    "\u2581baptizeth": 7458,
    "\u2581pyr": 7459,
    "\u2581wedding": 7460,
    "\u2581project": 7461,
    "\u2581Joy": 7462,
    "ripe": 7463,
    "\u2581lick": 7464,
    "evolution": 7465,
    "\u2581mouthful": 7466,
    "\u2581dries": 7467,
    "\u2581spy": 7468,
    "lunta": 7469,
    "\u2581constant": 7470,
    "\u2581Ach": 7471,
    "\u2581quench": 7472,
    "\u2581pathetic": 7473,
    "\u2581becomingly": 7474,
    "\u2581faileth": 7475,
    "\u2581draft": 7476,
    "\u2581summ": 7477,
    "\u2581dar": 7478,
    "\u2581sling": 7479,
    "\u2581explod": 7480,
    "\u2581Shil": 7481,
    "\u2581TH": 7482,
    "\u2581compare": 7483,
    "\u2581Wash": 7484,
    "\u2581earlie": 7485,
    "\u2581abhorre": 7486,
    "\u2581local": 7487,
    "quality": 7488,
    "arsely": 7489,
    "\u2581heartily": 7490,
    "qui": 7491,
    "\u2581Aren": 7492,
    "ffer": 7493,
    "\u2581Phu": 7494,
    "ouching": 7495,
    "esture": 7496,
    "\u2581encountered": 7497,
    "\u2581mansion": 7498,
    "\u2581thereabout": 7499,
    "\u2581missing": 7500,
    "\u2581excused": 7501,
    "\u2581fastness": 7502,
    "\u2581swamp": 7503,
    "\u2581brightest": 7504,
    "\u2581nicely": 7505,
    "non": 7506,
    "\u2581Ze": 7507,
    "urning": 7508,
    "\u2581glare": 7509,
    "\u2581Nan": 7510,
    "rks": 7511,
    "\u2581ramp": 7512,
    "rped": 7513,
    "\u2581hillsides": 7514,
    "\u2581elbows": 7515,
    "\u2581poplars": 7516,
    "\u2581scorpions": 7517,
    "\u2581aprons": 7518,
    "\u2581citizens": 7519,
    "controlled": 7520,
    "\u2581belongings": 7521,
    "\u2581payments": 7522,
    "ymen": 7523,
    "year": 7524,
    "\u2581highways": 7525,
    "\u2581outright": 7526,
    "\u2581ref": 7527,
    "ffed": 7528,
    "\u2581legion": 7529,
    "venge": 7530,
    "\u2581proudly": 7531,
    "\u2581readest": 7532,
    "lunchtime": 7533,
    "\u2581witch": 7534,
    "\u2581hangeth": 7535,
    "\u2581archer": 7536,
    "\u2581remarked": 7537,
    "\u2581someday": 7538,
    "\u2581vowed": 7539,
    "Alon": 7540,
    "\u2581stare": 7541,
    "\u2581lesson": 7542,
    "mely": 7543,
    "\u2581despairing": 7544,
    "\u2581inventing": 7545,
    "\u2581ev": 7546,
    "woods": 7547,
    "nuts": 7548,
    "\u2581wrestling": 7549,
    "\u2581sadly": 7550,
    "\u2581weakling": 7551,
    "\u2581gear": 7552,
    "\u2581faster": 7553,
    "\u2581Phil": 7554,
    "\u2581miser": 7555,
    "\u2581hasn": 7556,
    "\u2581impos": 7557,
    "ngular": 7558,
    "\u2581stunt": 7559,
    "\u2581Beor": 7560,
    "\u2581uncover": 7561,
    "\u2581awaked": 7562,
    "\u2581paces": 7563,
    "\u2581Rest": 7564,
    "\u2581Israelites": 7565,
    "\u2581consol": 7566,
    "\u2581included": 7567,
    "\u2581admoni": 7568,
    "\u2581plu": 7569,
    "ball": 7570,
    "orehouses": 7571,
    "\u2581wickedly": 7572,
    "\u2581guests": 7573,
    "\u2581bishops": 7574,
    "\u2581patriarchs": 7575,
    "\u2581results": 7576,
    "\u2581benefits": 7577,
    "\u2581ewes": 7578,
    "\u2581factions": 7579,
    "\u2581dispos": 7580,
    "\u2581reput": 7581,
    "\u2581washings": 7582,
    "\u2581Spid": 7583,
    "\u2581nast": 7584,
    "boards": 7585,
    "stones": 7586,
    "works": 7587,
    "fied": 7588,
    "TER": 7589,
    "\u2581dissipat": 7590,
    "\u2581decomposed": 7591,
    "\u2581gnawing": 7592,
    "\u2581coveting": 7593,
    "determin": 7594,
    "\u2581grassy": 7595,
    "\u2581Ked": 7596,
    "allows": 7597,
    "\u2581aboundeth": 7598,
    "\u2581secretly": 7599,
    "band": 7600,
    "\u2581boiled": 7601,
    "tay": 7602,
    "\u2581Nor": 7603,
    "\u2581bin": 7604,
    "\u2581dre": 7605,
    "\u2581blasphemer": 7606,
    "\u2581candles": 7607,
    "\u2581ranks": 7608,
    "\u2581Tir": 7609,
    "\u2581railings": 7610,
    "\u2581repenteth": 7611,
    "\u2581sorely": 7612,
    "\u2581departeth": 7613,
    "\u2581cries": 7614,
    "lay": 7615,
    "\u2581reigneth": 7616,
    "\u2581sharply": 7617,
    "\u2581stag": 7618,
    "\u2581forbearing": 7619,
    "\u2581weeds": 7620,
    "\u2581Dis": 7621,
    "hips": 7622,
    "\u2581lawfully": 7623,
    "\u2581Hot": 7624,
    "aves": 7625,
    "\u2581warmth": 7626,
    "\u2581breaketh": 7627,
    "\u2581twisting": 7628,
    "\u2581sheets": 7629,
    "\u2581tumults": 7630,
    "\u2581instructions": 7631,
    "\u2581poorly": 7632,
    "gree": 7633,
    "\u2581consented": 7634,
    "\u2581afoot": 7635,
    "wailed": 7636,
    "\u2581aboard": 7637,
    "\u2581preferr": 7638,
    "\u2581rouse": 7639,
    "\u2581jet": 7640,
    "rock": 7641,
    "\u2581Cos": 7642,
    "\u2581fou": 7643,
    "\u2581planning": 7644,
    "\u2581labours": 7645,
    "\u2581balloons": 7646,
    "\u2581belt": 7647,
    "shearer": 7648,
    "\u2581airy": 7649,
    "\u2581duel": 7650,
    "\u2581Arch": 7651,
    "\u2581clapp": 7652,
    "\u2581activit": 7653,
    "\u2581test": 7654,
    "\u2581sleepy": 7655,
    "\u2581signal": 7656,
    "\u2581plots": 7657,
    "\u2581vig": 7658,
    "\u2581bullocks": 7659,
    "\u2581enjoin": 7660,
    "\u2581platters": 7661,
    "\u2581Abia": 7662,
    "\u2581lusted": 7663,
    "\u2581seedling": 7664,
    "\u2581killings": 7665,
    "\u2581retain": 7666,
    "\u2581bloo": 7667,
    "\u2581ge": 7668,
    "\u2581Hada": 7669,
    "\u2581reaped": 7670,
    "\u2581rendered": 7671,
    "\u2581kne": 7672,
    "vity": 7673,
    "\u2581Sm": 7674,
    "\u2581praised": 7675,
    "arcel": 7676,
    "\u2581dism": 7677,
    "\u2581Pau": 7678,
    "consider": 7679,
    "\u2581marking": 7680,
    "\u2581popula": 7681,
    "\u2581farth": 7682,
    "chem": 7683,
    "\u2581residen": 7684,
    "actors": 7685,
    "acked": 7686,
    "there": 7687,
    "AB": 7688,
    "porter": 7689,
    "La": 7690,
    "sters": 7691,
    "umbled": 7692,
    "had": 7693,
    "\u2581agenc": 7694,
    "raggle": 7695,
    "gation": 7696,
    "\u2581sanctifie": 7697,
    "city": 7698,
    "\u2581radian": 7699,
    "udg": 7700,
    "balanc": 7701,
    "ency": 7702,
    "\u2581lengthen": 7703,
    "\u2581husk": 7704,
    "\u2581blur": 7705,
    "\u2581weaken": 7706,
    "fallen": 7707,
    "tines": 7708,
    "tac": 7709,
    "\u2581gunfi": 7710,
    "\u2581mini": 7711,
    "twee": 7712,
    "lative": 7713,
    "hip": 7714,
    "rich": 7715,
    "rake": 7716,
    "escend": 7717,
    "gratulation": 7718,
    "\u2581distresse": 7719,
    "journ": 7720,
    "\u2581kni": 7721,
    "\u2581paint": 7722,
    "\u2581Mesh": 7723,
    "\u2581ripp": 7724,
    "\u2581distribut": 7725,
    "ays": 7726,
    "ral": 7727,
    "\u2581Alva": 7728,
    "\u2581gar": 7729,
    "\u2581blo": 7730,
    "\u2581trou": 7731,
    "Ever": 7732,
    "\u2581morta": 7733,
    "\u2581watche": 7734,
    "ex": 7735,
    "\u2581carpe": 7736,
    "\u2581quali": 7737,
    "informed": 7738,
    "\u2581contra": 7739,
    "lets": 7740,
    "gin": 7741,
    "nches": 7742,
    "\u2581dainti": 7743,
    "\u2581unmo": 7744,
    "\u2581ba": 7745,
    "gi": 7746,
    "air": 7747,
    "\u2581relat": 7748,
    "\u2581sla": 7749,
    "Try": 7750,
    "nish": 7751,
    "ttle": 7752,
    "\u2581aveng": 7753,
    "par": 7754,
    "fighters": 7755,
    "och": 7756,
    "\u2581non": 7757,
    "\u2581obs": 7758,
    "\u2581naviga": 7759,
    "\u2581invite": 7760,
    "view": 7761,
    "composed": 7762,
    "efraud": 7763,
    "\u2581sca": 7764,
    "hen": 7765,
    "orseshoe": 7766,
    "rang": 7767,
    "\u2581protect": 7768,
    "\u2581welcom": 7769,
    "ust": 7770,
    "\u2581Cre": 7771,
    "iving": 7772,
    "ormwood": 7773,
    "ana": 7774,
    "clusive": 7775,
    "\u2581dam": 7776,
    "\u2581humm": 7777,
    "\u2581dep": 7778,
    "opping": 7779,
    "bag": 7780,
    "tasting": 7781,
    "oz": 7782,
    "aving": 7783,
    "\u2581impr": 7784,
    "\u2581pac": 7785,
    "\u2581elevat": 7786,
    "\u2581compensat": 7787,
    "nuel": 7788,
    "nstead": 7789,
    "\u2581Mel": 7790,
    "add": 7791,
    "mock": 7792,
    "phras": 7793,
    "ether": 7794,
    "\u2581exclu": 7795,
    "\u2581epi": 7796,
    "\u2581principalit": 7797,
    "hereunto": 7798,
    "formation": 7799,
    "evil": 7800,
    "\u2581prote": 7801,
    "ize": 7802,
    "\u2581Creat": 7803,
    "shoe": 7804,
    "awl": 7805,
    "pot": 7806,
    "wed": 7807,
    "llows": 7808,
    "udder": 7809,
    "bat": 7810,
    "bon": 7811,
    "\u2581protecti": 7812,
    "\u2581Rep": 7813,
    "\u2581entic": 7814,
    "fraud": 7815,
    "ck": 7816,
    "\u2581endur": 7817,
    "\u2581compose": 7818,
    "ioch": 7819,
    "\u2581navigati": 7820,
    "move": 7821,
    "\u2581persuade": 7822,
    "rk": 7823,
    "\u2581Po": 7824,
    "omantic": 7825,
    "\u2581snatche": 7826,
    "\u2581conc": 7827,
    "vo": 7828,
    "\u2581daint": 7829,
    "LO": 7830,
    "unic": 7831,
    "ushim": 7832,
    "lotted": 7833,
    "phra": 7834,
    "AM": 7835,
    "\u2581measur": 7836,
    "bits": 7837,
    "\u2581purpos": 7838,
    "elect": 7839,
    "\u2581Revi": 7840,
    "arrow": 7841,
    "\u2581enrol": 7842,
    "mali": 7843,
    "ignity": 7844,
    "\u2581na": 7845,
    "\u2581treati": 7846,
    "ripping": 7847,
    "arba": 7848,
    "acle": 7849,
    "olent": 7850,
    "\u2581adjo": 7851,
    "scend": 7852,
    "\u2581slack": 7853,
    "\u2581bewail": 7854,
    "\u2581grip": 7855,
    "\u2581compelle": 7856,
    "\u2581exalte": 7857,
    "tching": 7858,
    "nction": 7859,
    "\u2581Writ": 7860,
    "\u2581acknowledg": 7861,
    "\u2581gla": 7862,
    "\u2581mode": 7863,
    "\u2581lin": 7864,
    "\u2581vainglor": 7865,
    "kite": 7866,
    "\u2581Bac": 7867,
    "\u2581mids": 7868,
    "ammi": 7869,
    "\u2581pudd": 7870,
    "\u2581radia": 7871,
    "\u2581divin": 7872,
    "Pre": 7873,
    "styles": 7874,
    "\u2581rele": 7875,
    "\u2581temp": 7876,
    "\u2581Immediate": 7877,
    "\u2581guid": 7878,
    "tographe": 7879,
    "\u2581hi": 7880,
    "easing": 7881,
    "\u2581nois": 7882,
    "ruption": 7883,
    "trot": 7884,
    "mble": 7885,
    "ggle": 7886,
    "vah": 7887,
    "\u2581Li": 7888,
    "\u2581squ": 7889,
    "\u2581deci": 7890,
    "hab": 7891,
    "teller": 7892,
    "\u2581reli": 7893,
    "\u2581heav": 7894,
    "now": 7895,
    "pops": 7896,
    "\u2581refer": 7897,
    "\u2581Mac": 7898,
    "\u2581blasphem": 7899,
    "\u2581Byron": 7900,
    "\u2581loc": 7901,
    "\u2581proposi": 7902,
    "emarkable": 7903,
    "bakers": 7904,
    "\u2581Ex": 7905,
    "\u2581separat": 7906,
    "gro": 7907,
    "Spring": 7908,
    "quarters": 7909,
    "uc": 7910,
    "Jach": 7911,
    "shares": 7912,
    "pockets": 7913,
    "\u2581Straight": 7914,
    "\u2581nu": 7915,
    "reaching": 7916,
    "rley": 7917,
    "ooted": 7918,
    "plicat": 7919,
    "\u2581plac": 7920,
    "\u2581Atta": 7921,
    "dresse": 7922,
    "maker": 7923,
    "racker": 7924,
    "covered": 7925,
    "cca": 7926,
    "wise": 7927,
    "gger": 7928,
    "\u2581Tema": 7929,
    "arry": 7930,
    "pine": 7931,
    "Ti": 7932,
    "counting": 7933,
    "\u2581Dio": 7934,
    "mount": 7935,
    "\u2581spo": 7936,
    "sipate": 7937,
    "piders": 7938,
    "\u2581Whoso": 7939,
    "uddy": 7940,
    "\u2581simpli": 7941,
    "\u2581esc": 7942,
    "omen": 7943,
    "\u2581chang": 7944,
    "admonit": 7945,
    "maids": 7946,
    "thrus": 7947,
    "ickle": 7948,
    "\u2581northw": 7949,
    "\u2581Arc": 7950,
    "gaining": 7951,
    "\u2581Step": 7952,
    "hanging": 7953,
    "ppers": 7954,
    "emon": 7955,
    "pecial": 7956,
    "\u2581circ": 7957,
    "uary": 7958,
    "\u2581plat": 7959,
    "ticks": 7960,
    "ekah": 7961,
    "\u2581unfo": 7962,
    "uckle": 7963,
    "\u2581priv": 7964,
    "\u2581abhor": 7965,
    "ual": 7966,
    "\u2581hoar": 7967,
    "\u2581comp": 7968,
    "\u2581reconcili": 7969,
    "Ba": 7970,
    "\u2581conver": 7971,
    "nstantly": 7972,
    "\u2581rub": 7973,
    "pra": 7974,
    "\u2581unbeliev": 7975,
    "\u2581fac": 7976,
    "lute": 7977,
    "change": 7978,
    "pti": 7979,
    "\u2581contemp": 7980,
    "bearing": 7981,
    "\u2581carcas": 7982,
    "vented": 7983,
    "\u2581Buck": 7984,
    "wake": 7985,
    "eaten": 7986,
    "\u2581clap": 7987,
    "burg": 7988,
    "kin": 7989,
    "creased": 7990,
    "\u2581bruis": 7991,
    "ppoint": 7992,
    "postle": 7993,
    "lready": 7994,
    "give": 7995,
    "\u2581endeavor": 7996,
    "G": 7997,
    "Z": 7998,
    "q": 7999,
    "\u201c": 8000
  }
}